<unk>	0
<s>	0
</s>	0
▁t	-0
he	-1
▁a	-2
in	-3
▁the	-4
▁s	-5
▁o	-6
er	-7
▁,	-8
▁w	-9
▁.	-10
▁の	-11
ed	-12
hi	-13
▁。	-14
re	-15
on	-16
▁(	-17
▁)	-18
▁c	-19
an	-20
▁of	-21
at	-22
▁、	-23
en	-24
▁に	-25
▁b	-26
▁p	-27
as	-28
or	-29
it	-30
▁f	-31
▁in	-32
▁m	-33
ar	-34
is	-35
▁は	-36
▁an	-37
▁た	-38
▁る	-39
es	-40
▁1	-41
▁k	-42
▁to	-43
al	-44
▁d	-45
▁n	-46
▁and	-47
▁を	-48
▁と	-49
ro	-50
am	-51
ho	-52
ing	-53
▁し	-54
▁て	-55
▁が	-56
▁い	-57
un	-58
▁was	-59
▁で	-60
ion	-61
le	-62
ak	-63
us	-64
▁g	-65
▁年	-66
▁he	-67
ur	-68
yo	-69
ic	-70
▁な	-71
em	-72
▁l	-73
▁re	-74
▁is	-75
▁'	-76
his	-77
ent	-78
ec	-79
ai	-80
▁あ	-81
▁h	-82
ly	-83
om	-84
▁as	-85
ad	-86
▁no	-87
▁れ	-88
▁j	-89
▁st	-90
ut	-91
▁も	-92
ce	-93
▁っ	-94
▁on	-95
▁e	-96
im	-97
to	-98
ter	-99
▁it	-100
ation	-101
▁こ	-102
▁th	-103
▁r	-104
▁さ	-105
ag	-106
▁2	-107
su	-108
▁be	-109
ac	-110
▁日	-111
st	-112
▁大	-113
il	-114
▁す	-115
▁"	-116
▁for	-117
▁his	-118
▁か	-119
ver	-120
ain	-121
od	-122
ap	-123
ol	-124
ay	-125
ji	-126
emp	-127
ig	-128
ch	-129
id	-130
ok	-131
▁y	-132
um	-133
▁・	-134
ug	-135
her	-136
ame	-137
ve	-138
et	-139
▁pro	-140
▁:	-141
▁by	-142
▁sh	-143
eri	-144
▁する	-145
▁that	-146
ir	-147
ted	-148
▁wit	-149
▁ら	-150
▁at	-151
▁al	-152
ow	-153
▁よ	-154
▁19	-155
shi	-156
▁月	-157
▁ho	-158
▁with	-159
▁」	-160
▁「	-161
rom	-162
▁con	-163
ud	-164
ld	-165
▁or	-166
▁-	-167
▁hi	-168
uk	-169
▁そ	-170
▁from	-171
ri	-172
aw	-173
se	-174
est	-175
ect	-176
uc	-177
ami	-178
ure	-179
▁う	-180
▁are	-181
▁co	-182
▁一	-183
ity	-184
ot	-185
ab	-186
▁ま	-187
▁り	-188
all	-189
▁ch	-190
rin	-191
▁天	-192
▁se	-193
▁pre	-194
ated	-195
ul	-196
▁3	-197
apan	-198
und	-199
▁18	-200
and	-201
▁japan	-202
ere	-203
▁から	-204
if	-205
▁v	-206
▁de	-207
▁im	-208
▁were	-209
so	-210
ik	-211
ate	-212
▁sho	-213
▁cl	-214
▁く	-215
▁yo	-216
th	-217
▁com	-218
▁時	-219
▁this	-220
▁temp	-221
pp	-222
▁whi	-223
▁po	-224
▁国	-225
▁こと	-226
▁su	-227
▁kyo	-228
▁中	-229
▁後	-230
ori	-231
ers	-232
▁京	-233
▁bec	-234
▁ex	-235
▁so	-236
iv	-237
▁go	-238
jo	-239
ear	-240
▁その	-241
ge	-242
▁emp	-243
ary	-244
▁mo	-245
▁temple	-246
00	-247
▁who	-248
end	-249
ard	-250
▁shi	-251
eriod	-252
▁imp	-253
▁period	-254
ct	-255
▁家	-256
▁also	-257
▁af	-258
▁や	-259
▁ar	-260
▁kyoto	-261
ist	-262
▁られ	-263
▁which	-264
▁日本	-265
▁市	-266
ther	-267
▁prov	-268
awa	-269
ment	-270
▁tr	-271
ugh	-272
▁4	-273
▁us	-274
ast	-275
▁寺	-276
cho	-277
we	-278
▁お	-279
ince	-280
ara	-281
iz	-282
ber	-283
op	-284
sh	-285
amily	-286
▁family	-287
aku	-288
▁つ	-289
▁fo	-290
ess	-291
ank	-292
▁神	-293
ong	-294
ord	-295
▁there	-296
ki	-297
▁ro	-298
▁ko	-299
ama	-300
ei	-301
▁un	-302
▁など	-303
▁after	-304
ese	-305
eror	-306
▁emperor	-307
▁le	-308
▁京都	-309
ant	-310
▁この	-311
▁三	-312
ally	-313
▁5	-314
▁whe	-315
qu	-316
▁call	-317
▁pl	-318
▁city	-319
▁ad	-320
▁7	-321
ine	-322
oc	-323
ashi	-324
fect	-325
ition	-326
▁tak	-327
▁6	-328
atsu	-329
▁時代	-330
▁本	-331
erial	-332
▁min	-333
▁わ	-334
ura	-335
▁station	-336
▁上	-337
▁11	-338
ill	-339
ll	-340
▁人	-341
▁not	-342
▁name	-343
ice	-344
use	-345
hed	-346
▁called	-347
▁15	-348
ie	-349
art	-350
▁もの	-351
▁prefect	-352
▁8	-353
▁文	-354
▁元	-355
ies	-356
bo	-357
▁clan	-358
ang	-359
▁地	-360
ave	-361
▁だ	-362
▁year	-363
▁man	-364
▁di	-365
ive	-366
▁『	-367
▁』	-368
ci	-369
▁imperial	-370
▁u	-371
▁kan	-372
▁chi	-373
ved	-374
▁province	-375
igh	-376
▁山	-377
ade	-378
▁en	-379
▁明	-380
▁行	-381
▁became	-382
▁天皇	-383
▁東	-384
▁one	-385
▁長	-386
▁出	-387
▁had	-388
aka	-389
▁また	-390
ari	-391
▁prefecture	-392
▁japanese	-393
▁off	-394
▁but	-395
▁12	-396
oto	-397
age	-398
▁10	-399
ss	-400
▁app	-401
▁高	-402
▁sp	-403
ort	-404
ous	-405
▁ため	-406
▁同	-407
ory	-408
▁平	-409
oku	-410
▁名	-411
ater	-412
▁inc	-413
▁ac	-414
aid	-415
achi	-416
▁16	-417
ass	-418
own	-419
ra	-420
ight	-421
▁rank	-422
▁prin	-423
ichi	-424
▁氏	-425
ish	-426
▁以	-427
▁駅	-428
tain	-429
ko	-430
▁shrin	-431
▁多	-432
▁的	-433
▁shin	-434
▁9	-435
▁gen	-436
▁gr	-437
▁ne	-438
fer	-439
▁tim	-440
▁生	-441
▁現	-442
vern	-443
ry	-444
low	-445
▁scho	-446
▁when	-447
▁govern	-448
▁son	-449
▁used	-450
ya	-451
aga	-452
▁代	-453
ue	-454
▁正	-455
▁よう	-456
ign	-457
ku	-458
▁ed	-459
▁comp	-460
aki	-461
▁これ	-462
▁bo	-463
ans	-464
les	-465
▁howe	-466
▁however	-467
▁wor	-468
ushi	-469
▁school	-470
▁下	-471
ace	-472
▁other	-473
ome	-474
▁me	-475
ide	-476
ond	-477
▁yoshi	-478
▁des	-479
oin	-480
▁reg	-481
jin	-482
▁小	-483
▁fir	-484
udd	-485
og	-486
uring	-487
▁tok	-488
ember	-489
▁they	-490
uji	-491
pt	-492
ished	-493
▁通	-494
rit	-495
▁17	-496
▁学	-497
▁first	-498
orm	-499
▁県	-500
▁新	-501
ial	-502
▁shrine	-503
▁dis	-504
▁am	-505
▁ser	-506
ren	-507
▁き	-508
▁comm	-509
▁budd	-510
▁been	-511
▁pe	-512
red	-513
▁i	-514
▁have	-515
os	-516
▁へ	-517
ore	-518
ack	-519
▁ば	-520
ten	-521
▁hig	-522
▁内	-523
▁13	-524
▁fe	-525
▁200	-526
ishi	-527
▁during	-528
uni	-529
ake	-530
▁part	-531
▁loc	-532
▁line	-533
ts	-534
▁cour	-535
per	-536
▁has	-537
▁二	-538
wn	-539
▁近	-540
une	-541
ance	-542
ult	-543
▁明治	-544
▁sec	-545
▁西	-546
▁戦	-547
▁開	-548
▁head	-549
▁time	-550
way	-551
▁res	-552
▁法	-553
▁sen	-554
ered	-555
▁位	-556
▁da	-557
ust	-558
under	-559
ata	-560
▁te	-561
one	-562
ail	-563
▁関	-564
ub	-565
▁第	-566
av	-567
ress	-568
▁its	-569
▁him	-570
yama	-571
▁事	-572
nown	-573
▁such	-574
▁pri	-575
▁abo	-576
▁武	-577
ma	-578
▁into	-579
▁war	-580
▁町	-581
▁mas	-582
▁fol	-583
▁dai	-584
form	-585
chi	-586
▁入	-587
▁義	-588
▁藩	-589
▁北	-590
ical	-591
▁mar	-592
▁coun	-593
▁院	-594
▁御	-595
▁子	-596
▁者	-597
gun	-598
▁作	-599
▁old	-600
ence	-601
ather	-602
▁cast	-603
▁dom	-604
▁皇	-605
▁made	-606
▁信	-607
▁san	-608
▁she	-609
▁呼	-610
▁est	-611
▁ag	-612
▁せ	-613
▁dec	-614
▁藤	-615
▁kam	-616
▁公	-617
▁重	-618
▁自	-619
▁主	-620
▁14	-621
▁源	-622
▁said	-623
▁宗	-624
▁sect	-625
▁later	-626
te	-627
duc	-628
▁we	-629
▁政	-630
round	-631
▁前	-632
ters	-633
▁じ	-634
ada	-635
▁当	-636
▁nob	-637
uchi	-638
▁prince	-639
▁main	-640
▁buddhis	-641
▁古	-642
▁mon	-643
▁court	-644
▁yam	-645
▁しか	-646
▁cont	-647
▁建	-648
▁書	-649
▁col	-650
▁bro	-651
▁their	-652
▁所	-653
mi	-654
▁her	-655
▁bu	-656
ree	-657
▁ん	-658
▁tw	-659
▁form	-660
iver	-661
▁z	-662
▁経	-663
▁記	-664
▁rec	-665
▁sy	-666
▁acc	-667
▁方	-668
▁発	-669
▁使	-670
lud	-671
▁castle	-672
▁伝	-673
▁edo	-674
▁見	-675
▁不	-676
▁government	-677
▁場	-678
▁石	-679
▁died	-680
▁fuji	-681
▁tho	-682
▁under	-683
igin	-684
▁rel	-685
▁ten	-686
▁bet	-687
▁江	-688
▁follow	-689
▁some	-690
abl	-691
▁domain	-692
ople	-693
yoshi	-694
▁分	-695
▁流	-696
▁城	-697
▁mi	-698
fu	-699
▁origin	-700
▁道	-701
▁実	-702
▁out	-703
▁per	-704
itsu	-705
▁exp	-706
ian	-707
▁ev	-708
amoto	-709
▁従	-710
ents	-711
▁まで	-712
▁offic	-713
▁people	-714
ty	-715
ied	-716
▁act	-717
act	-718
wara	-719
▁世	-720
▁stat	-721
▁対	-722
emon	-723
▁しかし	-724
▁cons	-725
▁do	-726
uki	-727
sho	-728
up	-729
▁会	-730
▁establ	-731
ause	-732
me	-733
▁ord	-734
▁ent	-735
urn	-736
ach	-737
ings	-738
ono	-739
ural	-740
▁kin	-741
omi	-742
▁buil	-743
▁up	-744
▁区	-745
go	-746
fore	-747
▁pres	-748
ath	-749
▁bus	-750
▁includ	-751
▁/	-752
▁現在	-753
other	-754
▁chin	-755
▁hist	-756
ano	-757
▁江戸	-758
▁親	-759
ister	-760
▁初	-761
uary	-762
▁宮	-763
uld	-764
▁post	-765
▁second	-766
▁最	-767
▁み	-768
▁用	-769
▁gener	-770
▁br	-771
wa	-772
ions	-773
▁目	-774
▁旧	-775
▁四	-776
▁cent	-777
▁because	-778
▁many	-779
▁ter	-780
ower	-781
▁fujiwara	-782
ational	-783
ke	-784
▁ほ	-785
att	-786
de	-787
ino	-788
cess	-789
▁day	-790
mo	-791
▁藤原	-792
tern	-793
▁言	-794
cri	-795
yu	-796
▁two	-797
ween	-798
bu	-799
▁ret	-800
ife	-801
▁between	-802
▁参	-803
▁安	-804
▁same	-805
▁南	-806
str	-807
▁かっ	-808
▁arm	-809
▁writ	-810
▁部	-811
▁ab	-812
▁tai	-813
▁att	-814
ict	-815
▁特	-816
▁和	-817
do	-818
reat	-819
▁府	-820
▁次	-821
▁shogun	-822
▁oc	-823
▁rep	-824
no	-825
az	-826
▁new	-827
▁years	-828
▁朝	-829
▁add	-830
▁官	-831
akura	-832
ase	-833
▁thi	-834
▁priest	-835
stem	-836
▁work	-837
ato	-838
▁;	-839
ces	-840
▁char	-841
▁father	-842
shu	-843
▁system	-844
▁死	-845
▁五	-846
ited	-847
▁dep	-848
▁over	-849
▁間	-850
▁教	-851
▁daugh	-852
▁all	-853
▁child	-854
▁pr	-855
▁受	-856
asa	-857
▁about	-858
ors	-859
ib	-860
▁鉄	-861
▁線	-862
ats	-863
uro	-864
▁それ	-865
▁only	-866
▁軍	-867
umi	-868
▁pos	-869
lect	-870
▁改	-871
sel	-872
▁女	-873
▁juni	-874
omo	-875
ike	-876
▁全	-877
▁物	-878
ba	-879
able	-880
▁神社	-881
▁立	-882
▁appoin	-883
▁昭	-884
▁ni	-885
▁pers	-886
▁can	-887
are	-888
asu	-889
▁wo	-890
▁元年	-891
▁four	-892
ron	-893
ations	-894
▁幕	-895
▁cult	-896
▁daughter	-897
ft	-898
ung	-899
yle	-900
▁権	-901
▁position	-902
ha	-903
▁stud	-904
▁then	-905
▁nor	-906
orn	-907
▁sc	-908
▁伊	-909
▁社	-910
its	-911
▁より	-912
▁bel	-913
▁20	-914
▁ke	-915
ja	-916
▁指	-917
ular	-918
▁金	-919
▁batt	-920
▁有	-921
▁thir	-922
▁established	-923
▁八	-924
▁suc	-925
▁昭和	-926
▁sub	-927
▁父	-928
▁death	-929
▁them	-930
▁str	-931
▁buddhist	-932
▁歳	-933
ased	-934
▁ok	-935
▁person	-936
▁train	-937
▁trans	-938
▁松	-939
ute	-940
▁art	-941
▁cer	-942
▁ず	-943
▁ta	-944
▁three	-945
lo	-946
▁む	-947
▁歌	-948
▁文化	-949
▁清	-950
▁age	-951
▁tsu	-952
ef	-953
▁太	-954
▁known	-955
gan	-956
▁since	-957
▁知	-958
▁ma	-959
▁junior	-960
ting	-961
▁located	-962
ught	-963
▁lit	-964
▁national	-965
▁cho	-966
uku	-967
shin	-968
ane	-969
▁成	-970
▁186	-971
▁相	-972
▁lo	-973
▁ear	-974
▁appointed	-975
▁army	-976
▁左	-977
ived	-978
▁形	-979
ilit	-980
▁dist	-981
▁持	-982
vel	-983
▁守	-984
▁仏	-985
▁説	-986
▁cap	-987
da	-988
be	-989
▁serv	-990
▁水	-991
▁high	-992
▁187	-993
▁these	-994
ire	-995
▁nag	-996
▁木	-997
▁直	-998
▁制	-999
▁rail	-1000
▁minamoto	-1001
ubl	-1002
ident	-1003
min	-1004
▁battle	-1005
▁area	-1006
▁ア	-1007
ced	-1008
▁pol	-1009
▁os	-1010
▁lord	-1011
▁結	-1012
▁ward	-1013
▁thro	-1014
▁gu	-1015
▁館	-1016
▁sak	-1017
▁hand	-1018
aru	-1019
▁around	-1020
ward	-1021
▁dif	-1022
▁end	-1023
zu	-1024
tho	-1025
▁秀	-1026
▁奈	-1027
▁perform	-1028
▁ki	-1029
▁house	-1030
uth	-1031
▁pal	-1032
etsu	-1033
▁ju	-1034
ix	-1035
▁written	-1036
▁ass	-1037
▁頼	-1038
ried	-1039
▁kami	-1040
▁where	-1041
▁199	-1042
▁may	-1043
▁十	-1044
▁無	-1045
▁present	-1046
▁設	-1047
▁合	-1048
▁found	-1049
▁pass	-1050
▁受け	-1051
▁sa	-1052
▁nara	-1053
ite	-1054
▁left	-1055
ferred	-1056
ka	-1057
▁広	-1058
utsu	-1059
▁produc	-1060
struc	-1061
▁third	-1062
▁徳	-1063
▁official	-1064
ale	-1065
oth	-1066
tsu	-1067
ival	-1068
▁hall	-1069
▁vari	-1070
uri	-1071
▁奈良	-1072
▁観	-1073
▁served	-1074
▁again	-1075
ement	-1076
ized	-1077
▁held	-1078
hin	-1079
▁god	-1080
▁book	-1081
ip	-1082
▁吉	-1083
▁well	-1084
▁more	-1085
rect	-1086
▁場合	-1087
ivers	-1088
air	-1089
▁giv	-1090
▁play	-1091
old	-1092
▁sur	-1093
▁publ	-1094
▁rem	-1095
self	-1096
▁王	-1097
▁brother	-1098
▁hon	-1099
▁gro	-1100
pr	-1101
era	-1102
tion	-1103
▁集	-1104
oro	-1105
br	-1106
ision	-1107
▁手	-1108
▁土	-1109
jinja	-1110
▁とも	-1111
uke	-1112
▁order	-1113
▁他	-1114
▁別	-1115
day	-1116
▁～	-1117
000	-1118
▁万	-1119
▁郡	-1120
ょう	-1121
▁六	-1122
▁将	-1123
▁mother	-1124
▁palace	-1125
oka	-1126
▁accord	-1127
▁188	-1128
▁stre	-1129
▁nam	-1130
▁幕府	-1131
▁加	-1132
▁運	-1133
▁car	-1134
▁following	-1135
▁style	-1136
▁rice	-1137
amp	-1138
▁tit	-1139
▁意	-1140
med	-1141
▁号	-1142
▁young	-1143
▁railway	-1144
▁mik	-1145
gu	-1146
▁than	-1147
▁化	-1148
▁娘	-1149
▁194	-1150
▁op	-1151
▁addition	-1152
▁land	-1153
▁mei	-1154
▁役	-1155
▁great	-1156
▁direct	-1157
▁consid	-1158
▁豊	-1159
▁nak	-1160
▁ひ	-1161
pe	-1162
▁表	-1163
▁born	-1164
ior	-1165
▁ぶ	-1166
▁鎌	-1167
▁美	-1168
▁大学	-1169
▁189	-1170
ugawa	-1171
▁milit	-1172
▁系	-1173
gen	-1174
▁liter	-1175
▁kamakura	-1176
▁star	-1177
▁mat	-1178
▁yor	-1179
▁fam	-1180
▁set	-1181
▁ts	-1182
▁198	-1183
ship	-1184
▁supp	-1185
▁while	-1186
▁用い	-1187
▁定	-1188
han	-1189
ick	-1190
▁history	-1191
▁交	-1192
▁真	-1193
ume	-1194
▁親王	-1195
▁descri	-1196
▁鉄道	-1197
▁cur	-1198
▁num	-1199
▁192	-1200
▁each	-1201
▁military	-1202
▁osaka	-1203
▁kok	-1204
▁mus	-1205
▁少	-1206
▁being	-1207
▁those	-1208
ju	-1209
▁according	-1210
very	-1211
▁再	-1212
▁保	-1213
▁mid	-1214
ants	-1215
el	-1216
▁came	-1217
▁外	-1218
▁母	-1219
▁wife	-1220
▁charac	-1221
▁大臣	-1222
▁street	-1223
▁apr	-1224
▁office	-1225
▁バ	-1226
▁鎌倉	-1227
▁ind	-1228
▁baku	-1229
▁考	-1230
▁import	-1231
▁財	-1232
▁chief	-1233
▁tokyo	-1234
▁海	-1235
▁back	-1236
▁given	-1237
▁各	-1238
▁ceremon	-1239
▁even	-1240
▁april	-1241
▁march	-1242
▁spec	-1243
▁ob	-1244
rent	-1245
▁side	-1246
ning	-1247
▁bakufu	-1248
▁取	-1249
▁dr	-1250
▁支	-1251
▁bir	-1252
▁基	-1253
aro	-1254
▁region	-1255
▁univers	-1256
ual	-1257
eng	-1258
▁div	-1259
▁数	-1260
▁忠	-1261
▁design	-1262
▁oper	-1263
▁任	-1264
▁sum	-1265
▁祭	-1266
kan	-1267
▁舞	-1268
dai	-1269
▁右	-1270
kyo	-1271
▁pain	-1272
▁ち	-1273
▁等	-1274
▁派	-1275
▁fif	-1276
▁minister	-1277
▁納	-1278
myo	-1279
▁meiji	-1280
▁今	-1281
get	-1282
▁養	-1283
▁took	-1284
▁fest	-1285
ative	-1286
▁down	-1287
ga	-1288
▁平安	-1289
▁differ	-1290
▁qu	-1291
▁tre	-1292
▁光	-1293
ric	-1294
▁福	-1295
▁茶	-1296
▁long	-1297
▁変	-1298
▁食	-1299
▁ス	-1300
▁inv	-1301
known	-1302
▁build	-1303
▁chang	-1304
ating	-1305
▁town	-1306
▁governor	-1307
▁before	-1308
▁cultural	-1309
▁tokugawa	-1310
▁都	-1311
▁でき	-1312
ually	-1313
▁命	-1314
▁称	-1315
▁191	-1316
▁存	-1317
ana	-1318
▁屋	-1319
▁白	-1320
▁rest	-1321
▁retain	-1322
▁matsu	-1323
▁festival	-1324
▁including	-1325
▁村	-1326
rap	-1327
▁important	-1328
ures	-1329
▁most	-1330
▁proper	-1331
▁兼	-1332
▁heian	-1333
isho	-1334
▁conf	-1335
▁place	-1336
ia	-1337
▁イ	-1338
▁title	-1339
▁カ	-1340
▁adop	-1341
▁残	-1342
ided	-1343
▁東京	-1344
hy	-1345
▁among	-1346
▁足	-1347
▁jan	-1348
▁学校	-1349
▁through	-1350
▁due	-1351
hu	-1352
▁jo	-1353
▁appear	-1354
▁chinese	-1355
▁power	-1356
▁university	-1357
led	-1358
▁early	-1359
▁移	-1360
co	-1361
▁january	-1362
▁利	-1363
▁継	-1364
▁def	-1365
▁ty	-1366
▁慶	-1367
▁sam	-1368
urai	-1369
▁grade	-1370
▁師	-1371
▁兵	-1372
▁21	-1373
▁built	-1374
▁inst	-1375
▁class	-1376
▁ak	-1377
▁sw	-1378
▁tan	-1379
▁like	-1380
though	-1381
▁various	-1382
▁group	-1383
▁although	-1384
▁remain	-1385
agon	-1386
ason	-1387
hon	-1388
▁195	-1389
hara	-1390
res	-1391
mon	-1392
▁歴	-1393
ific	-1394
cip	-1395
まれ	-1396
▁なお	-1397
▁therefore	-1398
ems	-1399
▁hide	-1400
▁int	-1401
▁付	-1402
man	-1403
▁連	-1404
▁local	-1405
ful	-1406
▁総	-1407
▁ref	-1408
▁started	-1409
▁千	-1410
agi	-1411
▁190	-1412
▁酒	-1413
▁30	-1414
▁tea	-1415
▁kit	-1416
▁vis	-1417
▁cre	-1418
▁birth	-1419
hes	-1420
hik	-1421
▁vill	-1422
ired	-1423
▁197	-1424
▁諸	-1425
▁right	-1426
▁際	-1427
zo	-1428
cient	-1429
▁lar	-1430
▁common	-1431
▁construc	-1432
▁九	-1433
▁plac	-1434
sul	-1435
ords	-1436
▁return	-1437
▁延	-1438
▁kore	-1439
▁室	-1440
▁巻	-1441
▁将軍	-1442
▁moun	-1443
▁門	-1444
osed	-1445
▁trad	-1446
▁state	-1447
▁senior	-1448
ito	-1449
▁mu	-1450
▁octo	-1451
▁es	-1452
▁25	-1453
▁unknown	-1454
▁considered	-1455
▁源氏	-1456
▁徳川	-1457
▁himself	-1458
xt	-1459
▁永	-1460
▁som	-1461
▁考え	-1462
cil	-1463
sion	-1464
▁寛	-1465
▁fac	-1466
▁ins	-1467
▁電	-1468
▁のみ	-1469
▁shim	-1470
▁rece	-1471
▁taira	-1472
▁belie	-1473
▁生まれ	-1474
▁lower	-1475
▁own	-1476
igned	-1477
▁poet	-1478
▁如	-1479
▁性	-1480
velop	-1481
▁kaw	-1482
▁grand	-1483
bed	-1484
▁旧暦	-1485
▁conc	-1486
▁両	-1487
▁number	-1488
▁ancient	-1489
▁193	-1490
▁open	-1491
▁october	-1492
▁異	-1493
▁count	-1494
▁gon	-1495
bruary	-1496
▁mak	-1497
▁express	-1498
▁former	-1499
emb	-1500
▁february	-1501
usa	-1502
zen	-1503
ceed	-1504
▁both	-1505
▁vol	-1506
▁went	-1507
uma	-1508
▁law	-1509
▁fin	-1510
▁24	-1511
ates	-1512
▁花	-1513
▁han	-1514
cial	-1515
▁fuk	-1516
▁often	-1517
▁comple	-1518
▁fifth	-1519
▁ken	-1520
▁中国	-1521
▁jr	-1522
▁did	-1523
▁mod	-1524
gawa	-1525
▁ichi	-1526
ff	-1527
▁cro	-1528
▁december	-1529
▁22	-1530
▁ik	-1531
▁adopted	-1532
▁inter	-1533
▁develop	-1534
ities	-1535
▁statue	-1536
▁sad	-1537
▁six	-1538
▁july	-1539
▁adv	-1540
▁廃	-1541
▁阿	-1542
▁期	-1543
hout	-1544
▁met	-1545
▁leg	-1546
▁med	-1547
▁堂	-1548
▁guard	-1549
▁住	-1550
▁起	-1551
▁above	-1552
▁koku	-1553
▁シ	-1554
▁宇	-1555
▁occ	-1556
▁登	-1557
▁存在	-1558
▁196	-1559
▁compan	-1560
▁組	-1561
ugust	-1562
yasu	-1563
ako	-1564
▁弟	-1565
▁west	-1566
▁eng	-1567
eda	-1568
ital	-1569
▁共	-1570
▁sm	-1571
▁mountain	-1572
▁dy	-1573
▁mt	-1574
ep	-1575
▁円	-1576
▁toyo	-1577
▁august	-1578
▁図	-1579
▁stand	-1580
▁与	-1581
▁samurai	-1582
▁based	-1583
dori	-1584
▁theory	-1585
▁久	-1586
▁活	-1587
▁wak	-1588
▁田	-1589
▁仕	-1590
ise	-1591
▁始	-1592
▁way	-1593
▁末	-1594
▁section	-1595
▁進	-1596
▁bl	-1597
▁造	-1598
▁比	-1599
▁原	-1600
▁式	-1601
▁fourth	-1602
ious	-1603
▁wood	-1604
ven	-1605
▁機	-1606
▁times	-1607
▁fur	-1608
▁collect	-1609
▁nov	-1610
▁だっ	-1611
▁当時	-1612
▁一般	-1613
▁河	-1614
ptember	-1615
▁if	-1616
unaga	-1617
▁sim	-1618
ao	-1619
▁能	-1620
▁sai	-1621
▁november	-1622
ring	-1623
▁road	-1624
▁september	-1625
▁大き	-1626
▁23	-1627
▁七	-1628
▁term	-1629
▁側	-1630
▁引	-1631
▁車	-1632
▁general	-1633
▁28	-1634
ose	-1635
▁ot	-1636
▁以下	-1637
▁china	-1638
▁cor	-1639
▁風	-1640
ended	-1641
▁使用	-1642
▁ceremony	-1643
ima	-1644
▁cal	-1645
ime	-1646
▁pop	-1647
ury	-1648
▁とき	-1649
ern	-1650
▁ryo	-1651
▁tradition	-1652
▁回	-1653
iqu	-1654
▁研	-1655
▁era	-1656
▁納言	-1657
▁kei	-1658
▁bran	-1659
▁world	-1660
▁promo	-1661
▁success	-1662
▁翌	-1663
▁river	-1664
▁water	-1665
▁バス	-1666
▁ka	-1667
▁思	-1668
▁changed	-1669
ature	-1670
▁command	-1671
▁promoted	-1672
▁強	-1673
▁宝	-1674
ayama	-1675
▁[	-1676
▁コ	-1677
▁続	-1678
▁編	-1679
▁resid	-1680
▁]	-1681
▁以降	-1682
▁川	-1683
▁nishi	-1684
▁大阪	-1685
▁different	-1686
▁inf	-1687
▁succeed	-1688
▁先	-1689
▁empress	-1690
▁use	-1691
abe	-1692
▁against	-1693
▁har	-1694
▁番	-1695
inu	-1696
▁重要	-1697
uka	-1698
▁佐	-1699
ens	-1700
til	-1701
▁列	-1702
ics	-1703
▁master	-1704
istr	-1705
▁27	-1706
ately	-1707
omiya	-1708
ago	-1709
▁創	-1710
▁kill	-1711
ark	-1712
▁incident	-1713
pl	-1714
ories	-1715
▁histor	-1716
▁buddhism	-1717
▁追	-1718
▁職	-1719
▁ふ	-1720
izu	-1721
▁勝	-1722
▁皇子	-1723
ised	-1724
▁higashi	-1725
▁修	-1726
▁様	-1727
▁男	-1728
▁real	-1729
▁史	-1730
kai	-1731
gr	-1732
▁僧	-1733
▁ただ	-1734
una	-1735
▁多く	-1736
ently	-1737
als	-1738
▁研究	-1739
ze	-1740
▁others	-1741
▁春	-1742
▁乱	-1743
▁sake	-1744
▁zen	-1745
▁fore	-1746
▁large	-1747
▁料	-1748
▁somet	-1749
▁語	-1750
▁製	-1751
▁調	-1752
ially	-1753
▁ご	-1754
▁omi	-1755
▁kiyo	-1756
▁条	-1757
vent	-1758
▁dyn	-1759
▁工	-1760
oki	-1761
▁反	-1762
▁mis	-1763
▁take	-1764
▁約	-1765
▁頃	-1766
▁焼	-1767
▁タ	-1768
▁another	-1769
hood	-1770
▁帰	-1771
▁死去	-1772
▁tang	-1773
▁ど	-1774
▁shinto	-1775
ored	-1776
suke	-1777
▁tro	-1778
▁small	-1779
▁おけ	-1780
▁june	-1781
▁地方	-1782
▁five	-1783
▁route	-1784
▁例	-1785
衛門	-1786
▁ren	-1787
dle	-1788
sai	-1789
▁享	-1790
land	-1791
▁until	-1792
▁兄	-1793
▁解	-1794
,000	-1795
▁fact	-1796
▁細	-1797
aving	-1798
▁著	-1799
cept	-1800
▁aff	-1801
▁フ	-1802
▁祖	-1803
▁exist	-1804
ront	-1805
▁service	-1806
▁歴史	-1807
▁dynast	-1808
▁26	-1809
▁博	-1810
▁尊	-1811
read	-1812
▁resul	-1813
▁could	-1814
▁public	-1815
▁周	-1816
▁wom	-1817
oration	-1818
▁tad	-1819
▁contro	-1820
▁像	-1821
▁若	-1822
app	-1823
▁民	-1824
▁あた	-1825
▁sug	-1826
▁partic	-1827
▁provin	-1828
ange	-1829
▁体	-1830
▁lead	-1831
▁appro	-1832
▁middle	-1833
▁maj	-1834
▁織	-1835
▁貞	-1836
▁say	-1837
▁中心	-1838
▁feud	-1839
uru	-1840
▁物語	-1841
▁面	-1842
ogy	-1843
▁means	-1844
ield	-1845
▁regard	-1846
shrin	-1847
ート	-1848
▁関係	-1849
ified	-1850
▁sold	-1851
▁away	-1852
▁sit	-1853
ected	-1854
▁hok	-1855
▁構	-1856
▁council	-1857
▁branch	-1858
▁younger	-1859
▁tom	-1860
▁company	-1861
▁島	-1862
▁ec	-1863
▁常	-1864
isted	-1865
▁品	-1866
▁desc	-1867
▁enshrin	-1868
▁popular	-1869
ado	-1870
▁領	-1871
▁current	-1872
▁遺	-1873
▁hos	-1874
▁hideyoshi	-1875
▁得	-1876
par	-1877
▁ashik	-1878
▁戦い	-1879
▁days	-1880
useum	-1881
estern	-1882
▁attack	-1883
▁さら	-1884
▁nobunaga	-1885
▁would	-1886
▁character	-1887
▁kai	-1888
▁hiro	-1889
▁..	-1890
▁museum	-1891
goku	-1892
▁pur	-1893
▁life	-1894
▁状	-1895
▁同じ	-1896
▁resp	-1897
aido	-1898
▁mun	-1899
▁will	-1900
▁today	-1901
▁become	-1902
▁ashikaga	-1903
▁絵	-1904
▁昇	-1905
ject	-1906
▁join	-1907
▁bun	-1908
▁capital	-1909
agawa	-1910
za	-1911
▁now	-1912
▁major	-1913
▁mer	-1914
▁yas	-1915
▁fl	-1916
▁noh	-1917
▁奉	-1918
▁fu	-1919
▁足利	-1920
▁kab	-1921
▁princess	-1922
▁original	-1923
▁temples	-1924
▁began	-1925
cy	-1926
▁put	-1927
▁台	-1928
ible	-1929
▁along	-1930
ani	-1931
▁なが	-1932
▁yamato	-1933
▁ie	-1934
▁かけ	-1935
▁feudal	-1936
sen	-1937
▁east	-1938
aya	-1939
▁western	-1940
▁property	-1941
▁ku	-1942
▁sent	-1943
▁こう	-1944
▁信長	-1945
▁ext	-1946
▁building	-1947
▁同年	-1948
▁territ	-1949
▁没	-1950
zan	-1951
▁jin	-1952
▁buddha	-1953
▁center	-1954
▁received	-1955
cted	-1956
ck	-1957
▁hal	-1958
▁bas	-1959
▁port	-1960
▁iw	-1961
iled	-1962
▁画	-1963
iko	-1964
▁kar	-1965
▁special	-1966
▁children	-1967
uryo	-1968
▁designated	-1969
▁応	-1970
▁good	-1971
ism	-1972
▁演	-1973
▁向	-1974
▁issu	-1975
▁サ	-1976
▁lived	-1977
▁let	-1978
▁using	-1979
▁29	-1980
▁og	-1981
▁succeeded	-1982
▁trains	-1983
▁polit	-1984
▁village	-1985
iew	-1986
▁種	-1987
aijin	-1988
▁特に	-1989
▁ele	-1990
▁myo	-1991
ility	-1992
▁乗	-1993
▁mitsu	-1994
▁ky	-1995
roduc	-1996
▁front	-1997
ech	-1998
▁さらに	-1999
ution	-2000
▁yoshim	-2001
pper	-2002
▁shrines	-2003
ugo	-2004
▁refer	-2005
▁nin	-2006
▁普	-2007
▁admin	-2008
▁独	-2009
▁calend	-2010
▁百	-2011
▁秀吉	-2012
asaki	-2013
▁member	-2014
ingu	-2015
▁着	-2016
soci	-2017
▁you	-2018
▁examp	-2019
▁愛	-2020
▁身	-2021
▁良	-2022
▁pract	-2023
▁associ	-2024
▁genji	-2025
▁calendar	-2026
▁mov	-2027
▁depart	-2028
▁dynasty	-2029
▁浄	-2030
imes	-2031
▁gate	-2032
▁落	-2033
▁世紀	-2034
ner	-2035
▁run	-2036
▁further	-2037
lu	-2038
▁bi	-2039
▁miya	-2040
▁moved	-2041
▁bod	-2042
▁半	-2043
して	-2044
▁転	-2045
▁eld	-2046
▁彼	-2047
▁vass	-2048
▁still	-2049
▁without	-2050
▁literally	-2051
▁treas	-2052
▁置	-2053
den	-2054
▁決	-2055
▁切	-2056
▁唐	-2057
▁fire	-2058
unt	-2059
▁century	-2060
▁丹	-2061
▁keihan	-2062
ita	-2063
▁理	-2064
▁det	-2065
▁復	-2066
uno	-2067
▁キ	-2068
▁渡	-2069
▁京阪	-2070
▁elect	-2071
▁iz	-2072
▁residence	-2073
▁continu	-2074
itomo	-2075
ned	-2076
ention	-2077
▁音	-2078
thern	-2079
▁nihon	-2080
ined	-2081
▁100	-2082
airs	-2083
▁mean	-2084
▁northern	-2085
▁hak	-2086
▁ながら	-2087
▁taka	-2088
▁passed	-2089
gether	-2090
▁grad	-2091
▁施	-2092
arch	-2093
▁首	-2094
▁為	-2095
▁人物	-2096
▁oda	-2097
▁しま	-2098
sumed	-2099
romachi	-2100
▁及	-2101
▁一部	-2102
▁returned	-2103
▁メ	-2104
▁influ	-2105
ged	-2106
▁together	-2107
▁岩	-2108
ター	-2109
▁believed	-2110
mu	-2111
uga	-2112
▁sometimes	-2113
tomi	-2114
▁sout	-2115
ret	-2116
▁要	-2117
▁専	-2118
▁az	-2119
▁意味	-2120
▁retired	-2121
kawa	-2122
▁sl	-2123
▁のち	-2124
▁half	-2125
▁named	-2126
▁赤	-2127
▁belong	-2128
▁nar	-2129
▁muromachi	-2130
▁make	-2131
▁modern	-2132
▁芸	-2133
▁病	-2134
ape	-2135
gin	-2136
▁商	-2137
utes	-2138
▁priv	-2139
ks	-2140
▁story	-2141
▁統	-2142
rib	-2143
amura	-2144
▁資	-2145
▁traditional	-2146
isha	-2147
▁必	-2148
▁蔵	-2149
▁118	-2150
▁music	-2151
ころ	-2152
ves	-2153
▁moto	-2154
▁uji	-2155
row	-2156
▁治	-2157
echn	-2158
▁火	-2159
▁should	-2160
ets	-2161
▁famil	-2162
ta	-2163
cript	-2164
▁紀	-2165
▁設置	-2166
ages	-2167
▁mor	-2168
▁see	-2169
▁オ	-2170
▁銀	-2171
▁site	-2172
hito	-2173
▁collection	-2174
iness	-2175
▁north	-2176
vo	-2177
▁organ	-2178
▁与え	-2179
▁終	-2180
▁educ	-2181
▁administr	-2182
▁dain	-2183
▁マ	-2184
ively	-2185
▁techn	-2186
▁entered	-2187
▁貴	-2188
▁地域	-2189
▁show	-2190
▁troop	-2191
▁within	-2192
▁墓	-2193
▁室町	-2194
▁summ	-2195
▁introduc	-2196
▁originally	-2197
▁mai	-2198
▁そして	-2199
▁ut	-2200
yori	-2201
▁ホ	-2202
▁辞	-2203
orted	-2204
▁158	-2205
▁flo	-2206
▁south	-2207
▁宣	-2208
▁sang	-2209
▁伏	-2210
▁view	-2211
ral	-2212
ached	-2213
▁requ	-2214
▁度	-2215
▁type	-2216
▁miy	-2217
▁described	-2218
rew	-2219
▁any	-2220
▁可	-2221
▁野	-2222
uce	-2223
▁uk	-2224
▁daimyo	-2225
▁artic	-2226
▁確	-2227
▁sever	-2228
▁famous	-2229
▁取り	-2230
▁含	-2231
▁ise	-2232
▁late	-2233
▁eas	-2234
▁ただし	-2235
▁和歌	-2236
▁naga	-2237
▁織田	-2238
ured	-2239
▁record	-2240
▁在	-2241
▁就	-2242
▁鳥	-2243
▁論	-2244
aped	-2245
hime	-2246
▁大名	-2247
used	-2248
▁dan	-2249
▁descend	-2250
▁kaz	-2251
▁rev	-2252
▁事件	-2253
chu	-2254
▁単	-2255
▁sil	-2256
aper	-2257
▁stone	-2258
▁ud	-2259
▁たち	-2260
▁division	-2261
▁攻	-2262
▁影	-2263
▁伝え	-2264
▁having	-2265
▁竹	-2266
▁省	-2267
▁...	-2268
▁red	-2269
itted	-2270
▁越	-2271
sei	-2272
▁shogunate	-2273
▁every	-2274
▁repres	-2275
▁叙	-2276
▁由	-2277
▁equ	-2278
▁seri	-2279
ization	-2280
▁county	-2281
▁wooden	-2282
▁勢	-2283
▁reason	-2284
▁黒	-2285
▁参照	-2286
embers	-2287
▁refers	-2288
▁pat	-2289
▁sword	-2290
▁toshi	-2291
▁historical	-2292
▁陸	-2293
▁?	-2294
▁以後	-2295
▁food	-2296
▁寄	-2297
▁深	-2298
▁旅	-2299
▁stop	-2300
▁members	-2301
▁performed	-2302
▁頭	-2303
tect	-2304
ール	-2305
▁寺院	-2306
▁帝	-2307
▁poems	-2308
▁座	-2309
▁hojo	-2310
▁営	-2311
▁works	-2312
▁mainly	-2313
▁et	-2314
ines	-2315
▁興	-2316
▁規	-2317
▁飛	-2318
umul	-2319
▁うち	-2320
▁盛	-2321
▁養子	-2322
▁大正	-2323
▁referred	-2324
▁摂	-2325
▁my	-2326
▁kind	-2327
▁killed	-2328
▁心	-2329
ushu	-2330
ーム	-2331
▁families	-2332
ishment	-2333
▁富	-2334
▁推	-2335
ons	-2336
imi	-2337
uted	-2338
af	-2339
▁馬	-2340
▁sut	-2341
▁だけ	-2342
▁kom	-2343
▁ieyasu	-2344
▁科	-2345
▁kn	-2346
udo	-2347
▁増	-2348
▁指定	-2349
▁fun	-2350
▁仁	-2351
▁店	-2352
▁sei	-2353
▁date	-2354
▁gave	-2355
aged	-2356
▁names	-2357
▁om	-2358
▁問	-2359
▁青	-2360
▁next	-2361
▁souther	-2362
▁included	-2363
▁kum	-2364
emori	-2365
▁仏教	-2366
▁home	-2367
▁shing	-2368
▁kon	-2369
▁kann	-2370
▁け	-2371
▁southern	-2372
ps	-2373
▁enshrined	-2374
▁very	-2375
▁口	-2376
ode	-2377
▁placed	-2378
▁hor	-2379
▁点	-2380
otsu	-2381
▁produced	-2382
▁収	-2383
ering	-2384
▁料理	-2385
▁far	-2386
▁fushi	-2387
▁米	-2388
▁relig	-2389
▁ru	-2390
▁平成	-2391
hide	-2392
▁ところ	-2393
▁kuro	-2394
▁185	-2395
okawa	-2396
sha	-2397
▁poin	-2398
▁香	-2399
ラン	-2400
ety	-2401
ken	-2402
▁弘	-2403
odo	-2404
▁ra	-2405
▁result	-2406
▁led	-2407
▁flow	-2408
▁利用	-2409
▁affairs	-2410
▁完	-2411
▁律	-2412
▁古墳	-2413
▁win	-2414
▁just	-2415
▁伏見	-2416
istry	-2417
▁管	-2418
▁不明	-2419
▁shu	-2420
▁material	-2421
▁聖	-2422
▁opp	-2423
▁created	-2424
▁もと	-2425
akawa	-2426
jima	-2427
▁ト	-2428
▁bur	-2429
gi	-2430
▁defe	-2431
lected	-2432
▁thought	-2433
▁来	-2434
pped	-2435
▁梅	-2436
ness	-2437
▁159	-2438
▁fil	-2439
ically	-2440
▁country	-2441
まり	-2442
▁rul	-2443
▁poss	-2444
▁ir	-2445
zuru	-2446
▁影響	-2447
▁ver	-2448
ues	-2449
▁study	-2450
bun	-2451
ives	-2452
▁急	-2453
▁mur	-2454
▁近江	-2455
iec	-2456
zai	-2457
▁ge	-2458
ases	-2459
▁abol	-2460
▁department	-2461
▁空	-2462
oko	-2463
▁kas	-2464
ked	-2465
oino	-2466
▁選	-2467
▁auth	-2468
▁areas	-2469
▁動	-2470
▁doc	-2471
▁妻	-2472
raphy	-2473
▁至	-2474
▁kag	-2475
cl	-2476
▁即	-2477
▁大和	-2478
▁read	-2479
▁fr	-2480
▁配	-2481
▁construction	-2482
▁家康	-2483
▁distr	-2484
hen	-2485
▁cr	-2486
▁伊勢	-2487
▁エ	-2488
▁tumul	-2489
▁business	-2490
▁toyotomi	-2491
▁wh	-2492
▁lear	-2493
▁mori	-2494
uments	-2495
▁discip	-2496
▁認	-2497
hod	-2498
yed	-2499
▁em	-2500
▁relation	-2501
▁廃止	-2502
▁ぐ	-2503
▁contain	-2504
▁→	-2505
▁丸	-2506
▁農	-2507
hib	-2508
▁157	-2509
ット	-2510
▁tam	-2511
ument	-2512
▁横	-2513
▁局	-2514
▁不詳	-2515
▁once	-2516
▁隠	-2517
▁承	-2518
▁殿	-2519
▁aut	-2520
▁討	-2521
quently	-2522
▁ゆ	-2523
ban	-2524
▁district	-2525
▁評	-2526
▁武士	-2527
▁隊	-2528
hira	-2529
▁失	-2530
▁技	-2531
▁books	-2532
▁opened	-2533
▁早	-2534
▁成立	-2535
▁登場	-2536
▁北条	-2537
ched	-2538
▁尾	-2539
▁楽	-2540
▁藩主	-2541
▁豊臣	-2542
anted	-2543
▁rese	-2544
▁word	-2545
▁poetry	-2546
▁以上	-2547
shima	-2548
▁michi	-2549
▁幼	-2550
▁菩	-2551
▁作品	-2552
▁assumed	-2553
▁method	-2554
kaku	-2555
▁力	-2556
▁transferred	-2557
▁represent	-2558
▁一方	-2559
ゅう	-2560
▁developed	-2561
▁禅	-2562
irc	-2563
ique	-2564
▁kur	-2565
ices	-2566
▁seen	-2567
▁founded	-2568
▁fuku	-2569
ides	-2570
▁映	-2571
▁hachi	-2572
▁control	-2573
of	-2574
▁situ	-2575
▁yoritomo	-2576
▁na	-2577
▁列車	-2578
hiro	-2579
ries	-2580
▁令	-2581
▁朝鮮	-2582
▁長男	-2583
▁incre	-2584
▁volume	-2585
▁享年	-2586
▁挙	-2587
san	-2588
▁ste	-2589
▁議	-2590
val	-2591
▁fre	-2592
▁last	-2593
▁好	-2594
▁政府	-2595
sa	-2596
▁gard	-2597
▁prof	-2598
麻呂	-2599
▁tax	-2600
▁case	-2601
▁top	-2602
▁detail	-2603
▁団	-2604
▁橋	-2605
▁upper	-2606
▁ministry	-2607
ier	-2608
▁仕え	-2609
▁disp	-2610
▁commander	-2611
▁councilor	-2612
▁hid	-2613
uso	-2614
tle	-2615
▁ca	-2616
▁初期	-2617
ugi	-2618
▁role	-2619
▁ji	-2620
▁kabuki	-2621
▁居	-2622
eno	-2623
▁accom	-2624
lain	-2625
▁plat	-2626
▁assist	-2627
▁秋	-2628
▁舞鶴	-2629
▁甲	-2630
▁spring	-2631
▁follows	-2632
▁provision	-2633
▁published	-2634
▁守護	-2635
▁打	-2636
▁ill	-2637
▁electric	-2638
hold	-2639
▁景	-2640
▁gun	-2641
▁kun	-2642
▁continued	-2643
▁朝廷	-2644
▁field	-2645
▁central	-2646
▁lim	-2647
hum	-2648
▁platform	-2649
▁政治	-2650
▁close	-2651
▁天正	-2652
▁hot	-2653
▁熊	-2654
▁ここ	-2655
▁circ	-2656
▁代表	-2657
▁tot	-2658
▁painting	-2659
▁begin	-2660
▁characters	-2661
▁従五	-2662
▁near	-2663
ins	-2664
▁hosokawa	-2665
▁荘	-2666
▁room	-2667
▁伴	-2668
▁31	-2669
▁princip	-2670
▁ban	-2671
▁kuni	-2672
▁時期	-2673
▁color	-2674
▁katsu	-2675
▁scen	-2676
▁strong	-2677
▁ほど	-2678
▁mikoto	-2679
uct	-2680
▁award	-2681
ira	-2682
▁thr	-2683
▁example	-2684
▁べ	-2685
▁nan	-2686
▁描	-2687
usho	-2688
▁rits	-2689
▁paper	-2690
humous	-2691
koku	-2692
▁posthumous	-2693
lar	-2694
▁visit	-2695
▁charge	-2696
toku	-2697
iving	-2698
▁founder	-2699
▁ritsuryo	-2700
▁セ	-2701
ida	-2702
▁dem	-2703
▁戦争	-2704
▁遠	-2705
mis	-2706
▁meters	-2707
▁にて	-2708
iers	-2709
▁2007	-2710
▁short	-2711
▁sek	-2712
▁ノ	-2713
▁船	-2714
▁allow	-2715
▁ハ	-2716
▁概	-2717
▁細川	-2718
▁ある	-2719
uta	-2720
hie	-2721
▁kannon	-2722
▁退	-2723
▁ic	-2724
▁joined	-2725
▁political	-2726
▁出家	-2727
▁初代	-2728
▁tada	-2729
ending	-2730
▁eight	-2731
▁troops	-2732
▁sea	-2733
uko	-2734
▁hir	-2735
▁lost	-2736
▁霊	-2737
▁ann	-2738
▁sal	-2739
▁sk	-2740
▁講	-2741
ryu	-2742
▁bank	-2743
▁played	-2744
▁離	-2745
▁shon	-2746
▁film	-2747
▁読	-2748
▁たり	-2749
▁可能	-2750
▁gyo	-2751
▁供	-2752
▁image	-2753
▁産	-2754
▁映画	-2755
▁takeda	-2756
▁several	-2757
▁etc	-2758
▁suke	-2759
hest	-2760
▁states	-2761
▁許	-2762
▁そこ	-2763
▁翌年	-2764
▁ur	-2765
▁forces	-2766
▁ce	-2767
▁jug	-2768
▁bure	-2769
ochi	-2770
▁え	-2771
▁ひと	-2772
▁party	-2773
▁ほか	-2774
▁およ	-2775
▁2006	-2776
▁kats	-2777
▁waka	-2778
▁頼朝	-2779
▁roku	-2780
▁remains	-2781
▁song	-2782
▁慶長	-2783
▁開始	-2784
▁squ	-2785
▁tumulus	-2786
▁resigned	-2787
▁び	-2788
▁就任	-2789
▁piec	-2790
▁世界	-2791
▁event	-2792
▁ground	-2793
▁引き	-2794
▁曲	-2795
iga	-2796
▁開業	-2797
▁simil	-2798
▁association	-2799
▁prefectural	-2800
▁味	-2801
▁色	-2802
めて	-2803
▁plan	-2804
▁非	-2805
zaki	-2806
▁chu	-2807
▁処	-2808
reen	-2809
▁similar	-2810
▁ろ	-2811
▁助	-2812
▁km	-2813
▁fushimi	-2814
uty	-2815
▁以外	-2816
▁provisional	-2817
▁gold	-2818
▁0	-2819
ース	-2820
uses	-2821
▁rit	-2822
▁conn	-2823
▁education	-2824
▁ド	-2825
▁温	-2826
▁通り	-2827
▁island	-2828
▁消	-2829
▁yu	-2830
▁hold	-2831
▁conduc	-2832
▁guards	-2833
▁retainer	-2834
▁仲	-2835
▁部分	-2836
▁territory	-2837
td	-2838
▁停	-2839
▁kat	-2840
▁burea	-2841
ize	-2842
▁hong	-2843
▁街	-2844
▁typ	-2845
tsune	-2846
▁korea	-2847
▁article	-2848
▁出身	-2849
▁協	-2850
▁50	-2851
▁プ	-2852
▁井	-2853
▁dainagon	-2854
▁奥	-2855
▁はじ	-2856
lic	-2857
lled	-2858
▁women	-2859
▁introduced	-2860
▁務	-2861
▁入れ	-2862
▁異な	-2863
stit	-2864
▁culture	-2865
▁foreign	-2866
▁married	-2867
▁operation	-2868
awara	-2869
▁throne	-2870
▁宿	-2871
▁維	-2872
▁author	-2873
▁wide	-2874
▁系統	-2875
▁かつ	-2876
▁ltd	-2877
▁val	-2878
▁hy	-2879
▁park	-2880
▁bow	-2881
▁玉	-2882
▁禁	-2883
ugyo	-2884
▁hyo	-2885
amed	-2886
▁season	-2887
▁岡	-2888
▁month	-2889
▁relationship	-2890
▁ク	-2891
▁務め	-2892
atter	-2893
▁制度	-2894
▁achie	-2895
▁private	-2896
ustom	-2897
▁making	-2898
▁kik	-2899
▁ウ	-2900
▁まま	-2901
▁=	-2902
▁支配	-2903
▁cle	-2904
rakawa	-2905
▁restoration	-2906
▁bar	-2907
▁嘉	-2908
endai	-2909
▁年間	-2910
ayed	-2911
▁hat	-2912
▁body	-2913
▁宇治	-2914
▁pict	-2915
▁通称	-2916
▁garden	-2917
▁坂	-2918
▁池	-2919
istered	-2920
ile	-2921
▁女性	-2922
▁completed	-2923
▁approx	-2924
▁路	-2925
ead	-2926
▁気	-2927
▁yoshit	-2928
▁issued	-2929
▁secret	-2930
▁schools	-2931
▁soldiers	-2932
▁jun	-2933
▁ロ	-2934
▁計	-2935
▁建築	-2936
over	-2937
▁custom	-2938
▁constructed	-2939
▁補	-2940
醍醐	-2941
▁got	-2942
▁lad	-2943
▁kiyom	-2944
ls	-2945
▁三条	-2946
▁位置	-2947
▁lot	-2948
▁camp	-2949
▁research	-2950
▁appeared	-2951
▁根	-2952
▁監	-2953
わせ	-2954
▁名乗	-2955
▁観音	-2956
zane	-2957
▁華	-2958
▁kanto	-2959
▁shige	-2960
▁places	-2961
orai	-2962
▁斎	-2963
▁各地	-2964
ists	-2965
▁浄土	-2966
shino	-2967
kata	-2968
▁dance	-2969
▁mention	-2970
▁執	-2971
▁process	-2972
▁備	-2973
satsu	-2974
▁treasure	-2975
▁household	-2976
iri	-2977
▁歌舞	-2978
onom	-2979
▁jugoino	-2980
▁詳	-2981
idge	-2982
▁184	-2983
hashi	-2984
▁sign	-2985
po	-2986
▁yoshin	-2987
▁勅	-2988
▁稲	-2989
▁食べ	-2990
▁161	-2991
▁otsu	-2992
▁逃	-2993
▁disc	-2994
▁stage	-2995
▁律令	-2996
▁ラ	-2997
▁maizuru	-2998
▁過	-2999
butsu	-3000
▁deity	-3001
▁generally	-3002
▁漢	-3003
▁同様	-3004
▁美術	-3005
atari	-3006
▁司	-3007
▁敗	-3008
ock	-3009
▁後期	-3010
▁cham	-3011
▁assistant	-3012
▁generation	-3013
▁spir	-3014
▁provincial	-3015
リー	-3016
▁一族	-3017
style	-3018
▁koji	-3019
ishing	-3020
▁wa	-3021
▁必要	-3022
▁有名	-3023
▁sevent	-3024
ination	-3025
▁inform	-3026
▁少な	-3027
▁king	-3028
▁mats	-3029
▁cases	-3030
▁crown	-3031
▁thus	-3032
▁occur	-3033
▁start	-3034
▁字	-3035
ishu	-3036
ances	-3037
▁衆	-3038
oshi	-3039
▁men	-3040
▁suk	-3041
kaido	-3042
kei	-3043
daira	-3044
▁cut	-3045
▁arts	-3046
▁enter	-3047
▁callig	-3048
▁tale	-3049
▁support	-3050
▁紙	-3051
▁薬	-3052
yuki	-3053
▁夜	-3054
▁即位	-3055
▁パ	-3056
▁具	-3057
▁嫡	-3058
▁abolished	-3059
fuku	-3060
▁kono	-3061
▁nichi	-3062
▁sutra	-3063
▁particular	-3064
▁満	-3065
▁私	-3066
▁精	-3067
▁>	-3068
▁一人	-3069
▁戦国	-3070
▁struct	-3071
▁遊	-3072
▁医	-3073
▁起こ	-3074
ption	-3075
▁ny	-3076
▁当主	-3077
ushima	-3078
▁全国	-3079
amachi	-3080
▁弁	-3081
▁検	-3082
▁主に	-3083
▁ful	-3084
▁white	-3085
▁limited	-3086
▁段	-3087
▁blo	-3088
ishin	-3089
▁what	-3090
▁taken	-3091
▁鎮	-3092
▁sus	-3093
▁tal	-3094
▁literature	-3095
▁隆	-3096
▁醍醐	-3097
mura	-3098
▁kim	-3099
▁lun	-3100
▁becom	-3101
▁草	-3102
▁歌舞伎	-3103
▁片	-3104
less	-3105
ties	-3106
▁テ	-3107
▁yak	-3108
▁姫	-3109
▁降	-3110
▁cook	-3111
▁force	-3112
▁優	-3113
▁ishi	-3114
▁業	-3115
▁160	-3116
▁英	-3117
▁及び	-3118
▁教育	-3119
▁注	-3120
▁treat	-3121
▁弓	-3122
▁達	-3123
▁sun	-3124
▁yuk	-3125
▁2005	-3126
▁instit	-3127
▁中央	-3128
▁家臣	-3129
▁care	-3130
▁chamber	-3131
▁cover	-3132
▁regarded	-3133
▁並	-3134
▁勢力	-3135
▁功	-3136
olved	-3137
imately	-3138
▁放	-3139
ments	-3140
▁亀	-3141
lling	-3142
erv	-3143
dera	-3144
▁get	-3145
▁director	-3146
▁183	-3147
▁hai	-3148
enced	-3149
▁beginning	-3150
▁之	-3151
pan	-3152
▁40	-3153
▁伝わ	-3154
port	-3155
▁寿	-3156
▁筆	-3157
gyo	-3158
▁以前	-3159
▁由来	-3160
▁ぎ	-3161
ency	-3162
▁par	-3163
▁印	-3164
▁境	-3165
んど	-3166
usan	-3167
▁seven	-3168
▁track	-3169
pec	-3170
▁sengoku	-3171
▁および	-3172
▁黄	-3173
▁brought	-3174
▁133	-3175
▁pen	-3176
▁姿	-3177
▁築	-3178
▁譲	-3179
bon	-3180
▁um	-3181
▁separ	-3182
oda	-3183
haru	-3184
▁密	-3185
roku	-3186
▁wal	-3187
▁big	-3188
hic	-3189
▁交通	-3190
▁esc	-3191
▁warri	-3192
▁跡	-3193
▁子孫	-3194
▁菩薩	-3195
king	-3196
ense	-3197
bi	-3198
▁未	-3199
▁祀	-3200
icip	-3201
▁nat	-3202
▁nijo	-3203
▁older	-3204
▁satsu	-3205
▁shape	-3206
▁cm	-3207
▁jodo	-3208
▁fight	-3209
▁standing	-3210
▁武田	-3211
ened	-3212
▁instead	-3213
▁studied	-3214
ae	-3215
▁整	-3216
icho	-3217
▁君	-3218
▁dest	-3219
▁except	-3220
side	-3221
▁mot	-3222
▁nik	-3223
▁提	-3224
▁階	-3225
▁龍	-3226
▁70	-3227
ying	-3228
▁kansai	-3229
ount	-3230
▁x	-3231
▁ordered	-3232
machi	-3233
▁rebe	-3234
▁玄	-3235
▁国宝	-3236
▁近衛	-3237
▁light	-3238
▁status	-3239
▁personal	-3240
▁如来	-3241
▁貴族	-3242
▁次男	-3243
icated	-3244
▁words	-3245
▁vassal	-3246
▁何	-3247
aburo	-3248
▁past	-3249
▁sanjo	-3250
▁religious	-3251
▁sixth	-3252
▁悪	-3253
▁群	-3254
angu	-3255
▁勧	-3256
▁極	-3257
inct	-3258
▁fought	-3259
▁night	-3260
▁二条	-3261
gest	-3262
▁clo	-3263
▁turn	-3264
▁mentioned	-3265
▁浅	-3266
▁中期	-3267
▁hit	-3268
▁whose	-3269
▁塩	-3270
▁60	-3271
umes	-3272
▁matsudaira	-3273
▁塔	-3274
▁感	-3275
▁鹿	-3276
▁below	-3277
▁assigned	-3278
▁松平	-3279
▁活動	-3280
▁grave	-3281
▁defeated	-3282
▁ニ	-3283
▁堀	-3284
▁庭	-3285
いは	-3286
ashin	-3287
▁vice	-3288
▁ry	-3289
▁espec	-3290
▁崩	-3291
▁地下	-3292
▁始め	-3293
▁low	-3294
▁especially	-3295
▁徒	-3296
海道	-3297
▁purp	-3298
▁夫	-3299
son	-3300
aves	-3301
rote	-3302
▁孫	-3303
▁gok	-3304
ences	-3305
入れ	-3306
太郎	-3307
▁大きな	-3308
▁related	-3309
▁姓	-3310
▁老	-3311
▁儀	-3312
スト	-3313
▁80	-3314
▁示	-3315
▁captain	-3316
▁yoshino	-3317
▁deep	-3318
▁municip	-3319
▁116	-3320
▁retainers	-3321
▁臨	-3322
嵯峨	-3323
▁heav	-3324
▁tachi	-3325
▁records	-3326
sequently	-3327
▁%	-3328
▁程	-3329
▁soy	-3330
▁ほと	-3331
▁117	-3332
▁wrote	-3333
ification	-3334
-1	-3335
▁関東	-3336
wards	-3337
▁chun	-3338
▁prom	-3339
▁board	-3340
▁inner	-3341
▁節	-3342
▁迎	-3343
ukai	-3344
▁kamo	-3345
ession	-3346
▁municipal	-3347
▁志	-3348
▁ii	-3349
oryo	-3350
▁殺	-3351
imate	-3352
▁wear	-3353
▁details	-3354
▁園	-3355
▁mag	-3356
▁prob	-3357
▁nobles	-3358
▁series	-3359
▁kyushu	-3360
▁provinces	-3361
▁デ	-3362
hei	-3363
ison	-3364
▁upon	-3365
▁respect	-3366
ateg	-3367
tings	-3368
▁eldest	-3369
上げ	-3370
emy	-3371
▁1868	-3372
▁arri	-3373
▁does	-3374
▁monk	-3375
▁performance	-3376
▁余	-3377
▁雑	-3378
ぞれ	-3379
▁fall	-3380
▁poem	-3381
▁家督	-3382
▁unc	-3383
ashiro	-3384
▁store	-3385
▁approximately	-3386
▁echi	-3387
▁毎	-3388
▁記録	-3389
echi	-3390
▁draw	-3391
▁archi	-3392
▁spread	-3393
▁visited	-3394
▁operated	-3395
▁滋	-3396
fun	-3397
▁gods	-3398
▁naka	-3399
▁tsuk	-3400
▁commonly	-3401
▁判	-3402
▁林	-3403
▁最初	-3404
▁hum	-3405
▁156	-3406
▁自ら	-3407
pect	-3408
ising	-3409
▁装	-3410
▁それぞれ	-3411
▁結果	-3412
▁阿弥	-3413
thol	-3414
▁text	-3415
▁参加	-3416
▁参議	-3417
▁従五位	-3418
▁production	-3419
▁ジ	-3420
▁薩	-3421
兵衛	-3422
▁chron	-3423
▁八幡	-3424
▁布	-3425
▁縁	-3426
▁郷	-3427
▁115	-3428
▁fem	-3429
▁yama	-3430
▁冷	-3431
▁現代	-3432
more	-3433
▁headed	-3434
▁留	-3435
iki	-3436
▁木造	-3437
▁本願	-3438
▁particip	-3439
▁展	-3440
▁look	-3441
▁継承	-3442
▁写	-3443
amatsu	-3444
▁properties	-3445
▁名称	-3446
▁manag	-3447
▁polic	-3448
sed	-3449
▁mino	-3450
uto	-3451
▁丹波	-3452
ンター	-3453
▁はじめ	-3454
ained	-3455
▁meaning	-3456
▁sing	-3457
▁話	-3458
▁問題	-3459
olog	-3460
▁120	-3461
▁kamig	-3462
▁yamag	-3463
▁officials	-3464
▁送	-3465
▁活躍	-3466
▁混	-3467
わり	-3468
▁武将	-3469
ator	-3470
▁raised	-3471
▁though	-3472
▁桃	-3473
atic	-3474
ling	-3475
redit	-3476
▁kanp	-3477
21	-3478
▁属	-3479
▁記述	-3480
▁point	-3481
na	-3482
▁憲	-3483
enth	-3484
ecess	-3485
▁allowed	-3486
▁康	-3487
▁末期	-3488
▁仮	-3489
▁rus	-3490
▁2008	-3491
▁率	-3492
ays	-3493
▁信仰	-3494
▁征	-3495
▁よく	-3496
▁farm	-3497
▁worked	-3498
▁eastern	-3499
▁summary	-3500
▁戸	-3501
▁津	-3502
▁昇叙	-3503
▁course	-3504
▁satsuma	-3505
ements	-3506
▁stations	-3507
▁破	-3508
umo	-3509
▁exc	-3510
▁usually	-3511
▁chunagon	-3512
▁chap	-3513
▁cond	-3514
▁tsun	-3515
hisa	-3516
▁situation	-3517
mei	-3518
▁国立	-3519
▁実際	-3520
▁otomo	-3521
▁accompan	-3522
▁nakamura	-3523
付け	-3524
gaku	-3525
▁bea	-3526
▁inher	-3527
▁legend	-3528
▁違	-3529
▁そう	-3530
▁diff	-3531
▁皇太	-3532
avor	-3533
ondo	-3534
▁don	-3535
▁few	-3536
▁侍	-3537
▁monog	-3538
▁highest	-3539
▁statues	-3540
▁childhood	-3541
▁果	-3542
▁複	-3543
▁顕	-3544
▁fig	-3545
▁swe	-3546
▁taisho	-3547
▁類	-3548
▁つけ	-3549
▁sag	-3550
▁tri	-3551
▁roof	-3552
▁toki	-3553
▁社会	-3554
▁how	-3555
▁毛	-3556
▁中村	-3557
▁当初	-3558
hama	-3559
▁fell	-3560
mitted	-3561
▁complete	-3562
▁materials	-3563
▁大将	-3564
▁rap	-3565
▁indust	-3566
▁善	-3567
▁会社	-3568
▁chik	-3569
▁development	-3570
▁ぬ	-3571
▁士	-3572
▁弥	-3573
▁code	-3574
▁intern	-3575
▁短	-3576
▁嵯峨	-3577
ートル	-3578
▁foot	-3579
▁added	-3580
ger	-3581
▁ほとんど	-3582
▁bureau	-3583
▁ef	-3584
▁mochi	-3585
▁furthermore	-3586
▁都市	-3587
asion	-3588
▁tempor	-3589
▁難	-3590
onin	-3591
▁burn	-3592
▁inde	-3593
▁towns	-3594
▁bridge	-3595
▁建立	-3596
▁granted	-3597
▁予	-3598
▁特徴	-3599
▁effect	-3600
▁establishment	-3601
jiro	-3602
bashi	-3603
▁shugo	-3604
▁sister	-3605
▁surround	-3606
▁75	-3607
▁大坂	-3608
▁bosatsu	-3609
▁conducted	-3610
▁客	-3611
umn	-3612
voy	-3613
▁正室	-3614
hiko	-3615
uge	-3616
fusa	-3617
moto	-3618
▁lady	-3619
▁soci	-3620
▁倭	-3621
▁官位	-3622
▁den	-3623
▁documents	-3624
▁チ	-3625
ック	-3626
▁現存	-3627
▁tango	-3628
▁conferred	-3629
▁pun	-3630
▁tor	-3631
▁letter	-3632
▁influence	-3633
ving	-3634
▁gradu	-3635
▁jushi	-3636
▁shiga	-3637
▁ritual	-3638
▁栄	-3639
▁buildings	-3640
▁妙	-3641
▁countries	-3642
sc	-3643
alled	-3644
▁trave	-3645
▁woman	-3646
▁yoshitsune	-3647
uck	-3648
▁ordin	-3649
▁minutes	-3650
inoge	-3651
▁あるいは	-3652
▁羽	-3653
▁皇后	-3654
▁che	-3655
▁kus	-3656
▁prepar	-3657
▁本尊	-3658
▁神道	-3659
▁時間	-3660
▁設立	-3661
▁kak	-3662
▁kita	-3663
▁saga	-3664
▁training	-3665
▁迎え	-3666
▁hik	-3667
▁entr	-3668
▁sauce	-3669
▁菊	-3670
line	-3671
▁rak	-3672
▁kint	-3673
▁monogatari	-3674
▁180	-3675
▁警	-3676
▁兼任	-3677
▁政権	-3678
▁ono	-3679
▁latter	-3680
ンド	-3681
▁rapid	-3682
▁レ	-3683
▁願	-3684
▁本線	-3685
rend	-3686
▁担	-3687
▁hei	-3688
▁hard	-3689
▁剣	-3690
▁背	-3691
▁加え	-3692
kuni	-3693
▁kame	-3694
▁モ	-3695
▁公家	-3696
▁運転	-3697
isen	-3698
▁officer	-3699
▁完成	-3700
▁pray	-3701
▁memori	-3702
▁decided	-3703
▁柳	-3704
▁除	-3705
eshi	-3706
▁female	-3707
▁priesthood	-3708
▁av	-3709
ology	-3710
arters	-3711
▁total	-3712
▁刀	-3713
▁ow	-3714
▁九州	-3715
▁周辺	-3716
▁大津	-3717
▁kawachi	-3718
▁ヶ	-3719
ote	-3720
▁近代	-3721
▁eat	-3722
▁noble	-3723
▁売	-3724
ード	-3725
▁おお	-3726
▁via	-3727
▁nobu	-3728
lf	-3729
▁素	-3730
▁御所	-3731
medi	-3732
▁博物	-3733
▁定め	-3734
▁pot	-3735
ground	-3736
▁envoy	-3737
▁天平	-3738
▁brew	-3739
▁lines	-3740
mentary	-3741
▁inside	-3742
▁ha	-3743
▁nav	-3744
▁bound	-3745
▁cloth	-3746
▁孝	-3747
▁尼	-3748
▁formed	-3749
▁occurred	-3750
▁ワ	-3751
んじ	-3752
▁paintings	-3753
▁principal	-3754
▁東山	-3755
▁pag	-3756
▁administration	-3757
▁ビ	-3758
▁場所	-3759
▁nood	-3760
▁higher	-3761
▁始ま	-3762
▁河内	-3763
▁神宮	-3764
▁serving	-3765
▁施設	-3766
▁tomb	-3767
▁oldest	-3768
▁heredit	-3769
▁jugoinoge	-3770
ayashi	-3771
▁雅	-3772
▁生没	-3773
▁cele	-3774
▁know	-3775
▁activ	-3776
▁clear	-3777
▁carried	-3778
most	-3779
▁かつて	-3780
▁include	-3781
▁pattern	-3782
▁regions	-3783
▁いず	-3784
▁再び	-3785
▁死後	-3786
▁168	-3787
▁生没年	-3788
▁here	-3789
▁nation	-3790
▁衣	-3791
▁最も	-3792
▁attacked	-3793
▁武家	-3794
▁言葉	-3795
▁ben	-3796
▁goshi	-3797
▁ね	-3798
▁庶	-3799
▁seventh	-3800
▁hereditary	-3801
10	-3802
▁桜	-3803
▁烏	-3804
ryo	-3805
▁帝国	-3806
▁living	-3807
▁求	-3808
▁36	-3809
▁奉行	-3810
▁電気	-3811
▁cross	-3812
▁memorial	-3813
▁ヒ	-3814
▁採	-3815
ショ	-3816
▁mits	-3817
▁sac	-3818
▁shiki	-3819
▁shima	-3820
72	-3821
▁大夫	-3822
▁流れ	-3823
▁誕	-3824
▁限	-3825
▁上杉	-3826
▁認め	-3827
pond	-3828
▁119	-3829
icult	-3830
▁transport	-3831
▁sto	-3832
▁silk	-3833
▁shoshi	-3834
▁太政	-3835
▁戻	-3836
▁防	-3837
▁事業	-3838
▁付け	-3839
▁内容	-3840
pend	-3841
▁lunar	-3842
▁celebr	-3843
▁priests	-3844
▁protect	-3845
▁practice	-3846
▁remained	-3847
▁折	-3848
▁贈	-3849
▁base	-3850
▁crit	-3851
▁konoe	-3852
▁誕生	-3853
▁阿弥陀	-3854
▁shig	-3855
respond	-3856
▁descendants	-3857
20	-3858
▁断	-3859
▁ran	-3860
▁teach	-3861
▁correspond	-3862
▁滅	-3863
▁合戦	-3864
▁rin	-3865
▁wall	-3866
▁略	-3867
▁163	-3868
▁介	-3869
▁taking	-3870
▁selected	-3871
▁俳	-3872
▁neg	-3873
▁sci	-3874
▁full	-3875
▁ミ	-3876
▁源義	-3877
hachi	-3878
tained	-3879
▁差	-3880
lls	-3881
▁関西	-3882
▁桂	-3883
イン	-3884
▁166	-3885
▁oto	-3886
ashima	-3887
▁賞	-3888
▁twent	-3889
▁awarded	-3890
▁constit	-3891
▁vassals	-3892
▁moreover	-3893
11	-3894
▁天文	-3895
▁rik	-3896
▁meet	-3897
▁thin	-3898
▁horse	-3899
▁commun	-3900
▁hongan	-3901
▁transl	-3902
▁挙げ	-3903
▁最後	-3904
hing	-3905
ient	-3906
▁opin	-3907
▁init	-3908
▁volumes	-3909
▁generations	-3910
50	-3911
▁dos	-3912
▁ide	-3913
▁level	-3914
▁書紀	-3915
ambo	-3916
zuka	-3917
▁rok	-3918
unced	-3919
▁koto	-3920
▁fukuchi	-3921
▁leading	-3922
▁更	-3923
▁紫	-3924
▁徒歩	-3925
▁doct	-3926
▁hashi	-3927
▁existed	-3928
pted	-3929
▁bon	-3930
genji	-3931
▁sangi	-3932
▁リ	-3933
▁晴	-3934
dom	-3935
▁南北	-3936
▁come	-3937
▁indic	-3938
▁tanba	-3939
▁授	-3940
▁関白	-3941
▁いずれ	-3942
usole	-3943
▁fish	-3944
▁structure	-3945
▁格	-3946
katsu	-3947
▁acad	-3948
▁meas	-3949
shaped	-3950
▁honor	-3951
▁never	-3952
▁mausole	-3953
▁students	-3954
近衛	-3955
▁bes	-3956
▁corp	-3957
▁unit	-3958
▁brothers	-3959
▁compiled	-3960
arily	-3961
ength	-3962
▁mound	-3963
aur	-3964
▁古代	-3965
▁方面	-3966
▁kept	-3967
▁provided	-3968
▁ぜ	-3969
ither	-3970
▁divided	-3971
▁additionally	-3972
lp	-3973
▁湯	-3974
▁高等	-3975
▁yori	-3976
▁矢	-3977
▁滋賀	-3978
▁ito	-3979
▁super	-3980
▁綱	-3981
▁平氏	-3982
▁black	-3983
▁appears	-3984
▁個	-3985
▁rebell	-3986
18	-3987
▁念	-3988
▁湖	-3989
▁fut	-3990
▁俊	-3991
▁割	-3992
▁2000	-3993
▁seems	-3994
▁reform	-3995
▁independ	-3996
oya	-3997
▁機関	-3998
▁society	-3999
oney	-4000
▁ホーム	-4001
▁korean	-4002
▁mausoleum	-4003
▁information	-4004
▁弟子	-4005
▁相当	-4006
▁tree	-4007
▁actor	-4008
▁静	-4009
ery	-4010
ots	-4011
shoki	-4012
▁型	-4013
▁板	-4014
▁東大	-4015
▁続け	-4016
▁awa	-4017
▁豪	-4018
かり	-4019
men	-4020
▁miz	-4021
▁square	-4022
▁restaur	-4023
▁美濃	-4024
▁rule	-4025
thology	-4026
▁ichijo	-4027
▁nyorai	-4028
▁connect	-4029
▁scholar	-4030
▁淀	-4031
ido	-4032
yaku	-4033
▁certain	-4034
▁卒	-4035
▁卿	-4036
▁洋	-4037
▁激	-4038
▁裏	-4039
▁試	-4040
▁順	-4041
rei	-4042
▁真言	-4043
▁amida	-4044
aff	-4045
zon	-4046
▁出来	-4047
▁shis	-4048
▁currently	-4049
▁本来	-4050
▁表記	-4051
▁much	-4052
▁聞	-4053
▁伝統	-4054
▁当た	-4055
▁飛鳥	-4056
▁yoko	-4057
ughout	-4058
▁immedi	-4059
▁throughout	-4060
▁賀	-4061
▁技術	-4062
▁麻呂	-4063
ikan	-4064
▁jud	-4065
▁文学	-4066
右衛門	-4067
io	-4068
▁捕	-4069
▁33	-4070
▁heir	-4071
▁movement	-4072
▁76	-4073
rank	-4074
▁asuka	-4075
ilities	-4076
▁belonged	-4077
▁阪	-4078
▁nen	-4079
▁prev	-4080
ributed	-4081
▁originated	-4082
▁グ	-4083
▁牛	-4084
▁kintetsu	-4085
▁gradually	-4086
24	-4087
▁葬	-4088
▁国家	-4089
▁正月	-4090
▁exec	-4091
▁green	-4092
▁pieces	-4093
28	-4094
▁対立	-4095
▁bambo	-4096
▁amount	-4097
▁なか	-4098
▁路線	-4099
eral	-4100
▁simp	-4101
▁nihonshoki	-4102
▁温泉	-4103
▁理由	-4104
▁reign	-4105
▁fukuchiyama	-4106
▁低	-4107
▁68	-4108
ashu	-4109
▁length	-4110
▁subject	-4111
▁worship	-4112
▁め	-4113
▁坐	-4114
▁息	-4115
shiki	-4116
▁prop	-4117
▁tick	-4118
uf	-4119
▁有力	-4120
▁発展	-4121
amaro	-4122
▁spirit	-4123
▁difficult	-4124
▁money	-4125
▁年代	-4126
▁建て	-4127
▁walk	-4128
▁mutsu	-4129
▁※	-4130
lem	-4131
▁アメ	-4132
▁寛永	-4133
▁too	-4134
usand	-4135
▁destro	-4136
▁向か	-4137
▁監督	-4138
▁1869	-4139
▁less	-4140
▁change	-4141
▁概要	-4142
like	-4143
▁ues	-4144
▁architect	-4145
ュー	-4146
▁jusan	-4147
49	-4148
oji	-4149
zuk	-4150
▁名前	-4151
▁街道	-4152
ding	-4153
▁bamboo	-4154
▁shingon	-4155
▁followed	-4156
23	-4157
▁勘	-4158
▁保存	-4159
▁建設	-4160
seki	-4161
▁メートル	-4162
▁ダ	-4163
▁訪	-4164
▁平家	-4165
▁形式	-4166
▁銀行	-4167
ared	-4168
rest	-4169
▁fus	-4170
ready	-4171
▁2004	-4172
▁cost	-4173
▁exhib	-4174
▁陰	-4175
acy	-4176
ogn	-4177
▁福知	-4178
▁ume	-4179
ighth	-4180
▁already	-4181
▁chronic	-4182
▁校	-4183
▁程度	-4184
▁姉	-4185
▁自身	-4186
▁owned	-4187
▁social	-4188
▁uesugi	-4189
▁disciple	-4190
▁■	-4191
▁沿	-4192
▁荒	-4193
▁どう	-4194
rang	-4195
▁170	-4196
▁上皇	-4197
▁普通	-4198
▁運行	-4199
▁道路	-4200
▁nyo	-4201
▁yodo	-4202
▁丁	-4203
let	-4204
▁兄弟	-4205
▁評価	-4206
▁prec	-4207
▁pref	-4208
▁econom	-4209
▁pagoda	-4210
▁喜	-4211
▁釈	-4212
▁公園	-4213
▁記念	-4214
▁資料	-4215
▁comb	-4216
▁happ	-4217
▁posts	-4218
orated	-4219
▁shins	-4220
▁tendai	-4221
▁twenty	-4222
▁renamed	-4223
▁扱	-4224
▁泰	-4225
▁kob	-4226
▁sat	-4227
ological	-4228
▁rebellion	-4229
▁襲	-4230
ably	-4231
rary	-4232
▁cab	-4233
▁spe	-4234
▁wat	-4235
▁persons	-4236
▁拝	-4237
▁朱	-4238
▁almost	-4239
▁facult	-4240
▁picture	-4241
▁distingu	-4242
▁organization	-4243
12	-4244
▁陣	-4245
▁鬼	-4246
▁ほう	-4247
▁近畿	-4248
▁gak	-4249
▁keep	-4250
▁police	-4251
▁経由	-4252
▁mir	-4253
▁events	-4254
ixed	-4255
▁advis	-4256
▁higashiyama	-4257
▁情	-4258
ality	-4259
▁tried	-4260
▁幸	-4261
▁ant	-4262
iting	-4263
▁peace	-4264
▁noodles	-4265
▁retained	-4266
by	-4267
▁夏	-4268
ocated	-4269
izo	-4270
▁改称	-4271
▁立て	-4272
eration	-4273
▁recogn	-4274
▁基本	-4275
ashina	-4276
ui	-4277
▁ブ	-4278
▁快	-4279
bana	-4280
▁kod	-4281
▁thousand	-4282
aba	-4283
▁現れ	-4284
▁suic	-4285
▁祝	-4286
▁la	-4287
▁ve	-4288
aries	-4289
▁norm	-4290
itions	-4291
▁elder	-4292
itimate	-4293
▁占	-4294
▁なら	-4295
▁cars	-4296
▁sacred	-4297
▁脱	-4298
har	-4299
▁率い	-4300
reme	-4301
amasa	-4302
▁arrow	-4303
▁instr	-4304
▁achiev	-4305
▁戦後	-4306
▁立像	-4307
▁陸軍	-4308
▁services	-4309
▁植	-4310
▁邸	-4311
▁陵	-4312
▁gl	-4313
▁中世	-4314
▁法華	-4315
jingu	-4316
ography	-4317
▁eighth	-4318
▁studies	-4319
▁礼	-4320
aig	-4321
▁三十	-4322
ション	-4323
▁caused	-4324
aded	-4325
▁169	-4326
▁deities	-4327
ii	-4328
▁飲	-4329
▁1871	-4330
change	-4331
iction	-4332
▁lawful	-4333
▁finally	-4334
▁崇	-4335
eal	-4336
▁皇族	-4337
▁調査	-4338
ches	-4339
uten	-4340
▁diary	-4341
▁jusanmi	-4342
ント	-4343
▁一条	-4344
▁運動	-4345
▁avail	-4346
▁高野	-4347
road	-4348
▁policy	-4349
▁directly	-4350
▁involved	-4351
40	-4352
▁pure	-4353
▁theater	-4354
▁厳	-4355
▁智	-4356
▁浮	-4357
▁いわ	-4358
▁観光	-4359
▁通常	-4360
▁nao	-4361
▁kane	-4362
▁coming	-4363
▁leaves	-4364
▁learned	-4365
▁庁	-4366
ges	-4367
▁er	-4368
▁天保	-4369
▁swords	-4370
▁characterist	-4371
▁招	-4372
▁規模	-4373
▁aki	-4374
▁勤	-4375
▁途	-4376
▁山城	-4377
▁capt	-4378
▁tame	-4379
ulation	-4380
▁handed	-4381
▁location	-4382
▁範	-4383
uts	-4384
▁慶応	-4385
orts	-4386
▁mic	-4387
▁壬	-4388
▁枚	-4389
▁いえ	-4390
▁維新	-4391
▁air	-4392
▁deri	-4393
▁recon	-4394
▁dispat	-4395
▁nichiren	-4396
25	-4397
▁暗	-4398
▁模	-4399
▁量	-4400
sum	-4401
wor	-4402
yam	-4403
▁生活	-4404
▁荘園	-4405
▁nori	-4406
▁autumn	-4407
▁固	-4408
▁押	-4409
▁様々	-4410
▁経済	-4411
▁remo	-4412
undred	-4413
▁被	-4414
▁天台	-4415
vers	-4416
▁yos	-4417
▁owari	-4418
▁composed	-4419
▁歩	-4420
okoro	-4421
▁daigo	-4422
▁outside	-4423
▁振	-4424
▁遷	-4425
yal	-4426
▁舞台	-4427
ways	-4428
▁dut	-4429
▁ple	-4430
▁yen	-4431
▁じょう	-4432
riend	-4433
▁faculty	-4434
リカ	-4435
cest	-4436
▁enjo	-4437
▁enth	-4438
▁passeng	-4439
▁競	-4440
▁逆	-4441
▁さん	-4442
▁日記	-4443
juro	-4444
zawa	-4445
▁bre	-4446
▁tast	-4447
▁headqu	-4448
▁発生	-4449
▁皇女	-4450
▁hair	-4451
▁list	-4452
▁science	-4453
▁典	-4454
らか	-4455
▁35	-4456
inaga	-4457
▁musashi	-4458
▁本堂	-4459
▁oku	-4460
▁soba	-4461
▁houses	-4462
▁description	-4463
ina	-4464
▁ancest	-4465
▁available	-4466
▁負	-4467
uda	-4468
▁四条	-4469
▁新聞	-4470
▁目的	-4471
▁故	-4472
▁179	-4473
▁kiyomori	-4474
▁ル	-4475
▁建物	-4476
▁攻め	-4477
▁sok	-4478
ricult	-4479
▁serve	-4480
▁yorim	-4481
▁agricult	-4482
▁supported	-4483
▁仙	-4484
▁賜	-4485
▁鏡	-4486
▁pa	-4487
▁chug	-4488
▁soon	-4489
▁季	-4490
ony	-4491
wan	-4492
wer	-4493
▁多数	-4494
▁結婚	-4495
▁dishes	-4496
▁勲	-4497
▁sn	-4498
▁国道	-4499
▁calligraphy	-4500
43	-4501
▁報	-4502
▁墨	-4503
三郎	-4504
▁同志	-4505
▁lords	-4506
▁merch	-4507
▁widely	-4508
▁inherited	-4509
26	-4510
▁方法	-4511
zumi	-4512
▁尺	-4513
リア	-4514
ieval	-4515
▁card	-4516
▁yasu	-4517
▁trees	-4518
▁itself	-4519
▁ソ	-4520
for	-4521
▁所在	-4522
▁gif	-4523
▁sym	-4524
▁need	-4525
▁asked	-4526
▁friend	-4527
▁stories	-4528
58	-4529
▁坊	-4530
▁元禄	-4531
▁medieval	-4532
mai	-4533
▁ほぼ	-4534
▁コン	-4535
alth	-4536
▁acce	-4537
▁hank	-4538
▁advan	-4539
▁todai	-4540
eki	-4541
▁求め	-4542
▁自動	-4543
▁300	-4544
akami	-4545
▁human	-4546
▁silver	-4547
▁goshirakawa	-4548
▁蘇	-4549
▁内閣	-4550
▁deter	-4551
13	-4552
▁待	-4553
▁護	-4554
▁一種	-4555
▁巡	-4556
▁掛	-4557
▁森	-4558
▁蓮	-4559
▁天武	-4560
▁178	-4561
after	-4562
father	-4563
▁kashi	-4564
▁ガ	-4565
coun	-4566
▁150	-4567
▁scene	-4568
▁–	-4569
▁販	-4570
▁発行	-4571
selves	-4572
▁hundred	-4573
▁亡	-4574
▁絶	-4575
iso	-4576
▁設け	-4577
▁ham	-4578
▁tar	-4579
▁kata	-4580
engumi	-4581
▁writing	-4582
▁president	-4583
▁chamberlain	-4584
▁中将	-4585
▁分か	-4586
▁necess	-4587
▁yamashiro	-4588
▁武蔵	-4589
▁清盛	-4590
▁計画	-4591
▁ing	-4592
▁shijo	-4593
▁hokkaido	-4594
▁文書	-4595
rist	-4596
▁mand	-4597
▁kanze	-4598
▁kokushi	-4599
▁突	-4600
▁覚	-4601
▁自分	-4602
▁pow	-4603
▁2003	-4604
▁arrang	-4605
▁shinsengumi	-4606
▁投	-4607
iding	-4608
▁sand	-4609
▁estate	-4610
tr	-4611
▁友	-4612
ング	-4613
▁ye	-4614
▁同時	-4615
gram	-4616
▁tour	-4617
▁sweet	-4618
▁buried	-4619
▁regular	-4620
▁往	-4621
叡山	-4622
▁幼名	-4623
▁桃山	-4624
▁開発	-4625
imin	-4626
ament	-4627
illed	-4628
▁doub	-4629
▁parts	-4630
▁types	-4631
▁構成	-4632
▁dish	-4633
▁whole	-4634
▁帯	-4635
▁minami	-4636
▁technique	-4637
▁foundation	-4638
▁themselves	-4639
▁販売	-4640
▁uchi	-4641
▁uncle	-4642
▁active	-4643
▁increased	-4644
▁申	-4645
▁里	-4646
▁行事	-4647
band	-4648
▁shik	-4649
▁summer	-4650
▁occasion	-4651
▁党	-4652
mae	-4653
house	-4654
▁尾張	-4655
▁芸術	-4656
▁近年	-4657
▁male	-4658
▁masa	-4659
▁sound	-4660
▁幹	-4661
▁義経	-4662
▁powerful	-4663
47	-4664
▁ヤ	-4665
▁魚	-4666
cing	-4667
▁shun	-4668
▁ranks	-4669
▁tsune	-4670
白河	-4671
amori	-4672
▁sane	-4673
▁chapter	-4674
▁冬	-4675
▁包	-4676
▁庵	-4677
▁吉田	-4678
cell	-4679
iced	-4680
izei	-4681
▁dam	-4682
▁saw	-4683
▁後白河	-4684
▁showa	-4685
29	-4686
▁服	-4687
▁葛	-4688
ily	-4689
usai	-4690
▁初めて	-4691
atsuk	-4692
rently	-4693
▁cabin	-4694
▁products	-4695
▁immediately	-4696
19	-4697
▁容	-4698
▁飯	-4699
▁かか	-4700
▁伝承	-4701
▁lib	-4702
▁miyoshi	-4703
▁観世	-4704
▁karas	-4705
▁leader	-4706
▁theories	-4707
▁延暦	-4708
▁焼き	-4709
▁状態	-4710
▁表現	-4711
▁cop	-4712
▁concer	-4713
▁ranked	-4714
▁regent	-4715
48	-4716
▁eg	-4717
▁しば	-4718
▁commer	-4719
▁running	-4720
▁attached	-4721
▁冠	-4722
▁嵐	-4723
▁歌人	-4724
▁civ	-4725
▁しょう	-4726
▁soup	-4727
▁tomo	-4728
zukuri	-4729
▁facilities	-4730
▁敵	-4731
hoku	-4732
▁lineage	-4733
▁接	-4734
っと	-4735
▁派遣	-4736
▁busho	-4737
▁surrend	-4738
17	-4739
▁文字	-4740
▁fund	-4741
▁true	-4742
▁ケ	-4743
ufact	-4744
▁groups	-4745
▁伯	-4746
▁対象	-4747
▁del	-4748
▁says	-4749
▁enemy	-4750
▁sakai	-4751
▁natural	-4752
16	-4753
▁敷	-4754
▁晩	-4755
▁銅	-4756
▁mark	-4757
▁program	-4758
▁cloistered	-4759
▁雲	-4760
▁改め	-4761
▁東西	-4762
▁構造	-4763
aking	-4764
hisha	-4765
omoyama	-4766
▁single	-4767
▁cabinet	-4768
▁problem	-4769
▁tachibana	-4770
▁activities	-4771
46	-4772
▁彦	-4773
▁創建	-4774
lied	-4775
▁dri	-4776
▁soga	-4777
▁worn	-4778
▁earth	-4779
▁impro	-4780
▁ingred	-4781
▁previous	-4782
▁古く	-4783
▁営業	-4784
▁近鉄	-4785
cher	-4786
▁categ	-4787
▁clans	-4788
▁height	-4789
▁letters	-4790
▁manufact	-4791
▁32	-4792
▁変化	-4793
toki	-4794
amune	-4795
▁ishik	-4796
▁headquarters	-4797
▁q	-4798
▁角	-4799
▁三男	-4800
▁日蓮	-4801
▁状況	-4802
▁薩摩	-4803
▁iem	-4804
▁kojiki	-4805
▁kanpaku	-4806
▁depending	-4807
▁流派	-4808
▁詳細	-4809
▁500	-4810
ervation	-4811
▁課	-4812
ティ	-4813
▁付近	-4814
okan	-4815
▁fort	-4816
▁tsur	-4817
▁civil	-4818
▁副	-4819
▁器	-4820
▁港	-4821
かけ	-4822
▁大内	-4823
aced	-4824
urope	-4825
▁ident	-4826
▁遣	-4827
もと	-4828
▁わか	-4829
▁cra	-4830
▁fuj	-4831
▁suz	-4832
atern	-4833
▁administrative	-4834
▁ナ	-4835
▁寮	-4836
▁旗	-4837
▁狂	-4838
▁73	-4839
▁90	-4840
▁kir	-4841
akira	-4842
▁broad	-4843
▁coins	-4844
▁幅	-4845
▁暦	-4846
次郎	-4847
▁上京	-4848
▁事実	-4849
▁二十	-4850
▁太子	-4851
▁起源	-4852
yaki	-4853
▁ded	-4854
light	-4855
▁miko	-4856
▁sakyo	-4857
▁europe	-4858
▁katsura	-4859
▁境内	-4860
▁種類	-4861
▁yan	-4862
▁drin	-4863
▁forced	-4864
42	-4865
45	-4866
▁貨	-4867
orp	-4868
tai	-4869
▁吉野	-4870
▁news	-4871
zaemon	-4872
▁little	-4873
▁yoshida	-4874
▁帖	-4875
▁地区	-4876
▁烏丸	-4877
▁173	-4878
▁kage	-4879
▁round	-4880
▁thereafter	-4881
▁薨	-4882
▁土地	-4883
▁墓所	-4884
▁専門	-4885
▁左京	-4886
udai	-4887
▁130	-4888
atives	-4889
ressed	-4890
▁subsequently	-4891
▁representative	-4892
▁絹	-4893
▁kujo	-4894
▁accepted	-4895
▁非常	-4896
▁乾	-4897
▁38	-4898
▁el	-4899
▁地位	-4900
▁hus	-4901
pping	-4902
▁drama	-4903
▁nagasaki	-4904
nel	-4905
not	-4906
tan	-4907
▁丹後	-4908
▁任命	-4909
▁整備	-4910
▁木津	-4911
endo	-4912
▁妹	-4913
ude	-4914
▁島津	-4915
▁長崎	-4916
othes	-4917
▁shir	-4918
▁flour	-4919
▁sense	-4920
▁becoming	-4921
▁relative	-4922
▁視	-4923
▁九条	-4924
aternal	-4925
▁gather	-4926
▁entrance	-4927
▁corporation	-4928
ys	-4929
▁安置	-4930
▁生産	-4931
▁box	-4932
▁folk	-4933
▁must	-4934
▁udaijin	-4935
▁includes	-4936
▁authority	-4937
▁雪	-4938
▁くる	-4939
▁河原	-4940
▁eff	-4941
▁gir	-4942
▁アメリカ	-4943
▁センター	-4944
▁christ	-4945
▁invest	-4946
▁suicide	-4947
▁destroyed	-4948
▁legitimate	-4949
▁傾	-4950
▁次第	-4951
▁管理	-4952
ables	-4953
▁ya	-4954
▁兵庫	-4955
▁旅客	-4956
▁dead	-4957
▁highly	-4958
▁shichi	-4959
▁disciples	-4960
▁successor	-4961
▁人々	-4962
▁shinshu	-4963
▁導	-4964
▁前期	-4965
▁編成	-4966
▁153	-4967
ucian	-4968
▁novel	-4969
▁standard	-4970
▁institute	-4971
▁宗教	-4972
▁更に	-4973
▁音楽	-4974
▁help	-4975
▁inte	-4976
▁劇	-4977
▁66	-4978
▁大社	-4979
▁陸奥	-4980
ugaku	-4981
▁actually	-4982
▁谷	-4983
▁天王	-4984
▁正式	-4985
▁独立	-4986
▁crest	-4987
▁displ	-4988
▁toward	-4989
▁constitution	-4990
22	-4991
75	-4992
▁房	-4993
▁oe	-4994
▁宣下	-4995
▁dev	-4996
▁daijo	-4997
▁sadaijin	-4998
▁descendant	-4999
41	-5000
▁俗	-5001
▁準	-5002
おり	-5003
▁ton	-5004
ience	-5005
▁wind	-5006
▁休	-5007
▁浜	-5008
▁詩	-5009
iful	-5010
▁drum	-5011
▁husband	-5012
▁shimazu	-5013
▁specific	-5014
▁柱	-5015
▁毛利	-5016
▁石川	-5017
▁unique	-5018
▁historic	-5019
▁possible	-5020
▁述	-5021
▁附	-5022
▁鶴	-5023
ben	-5024
oma	-5025
▁区間	-5026
▁史料	-5027
▁国際	-5028
▁coll	-5029
▁love	-5030
▁fields	-5031
▁offices	-5032
▁reached	-5033
▁whether	-5034
▁doshisha	-5035
▁蒸	-5036
▁わた	-5037
▁能楽	-5038
ichii	-5039
▁ended	-5040
▁positions	-5041
▁拡	-5042
▁橘	-5043
▁浪	-5044
▁薨去	-5045
▁176	-5046
▁why	-5047
▁terms	-5048
▁escaped	-5049
ind	-5050
▁外国	-5051
▁acro	-5052
▁hyak	-5053
▁stayed	-5054
▁purpose	-5055
▁required	-5056
▁presented	-5057
之助	-5058
▁まつ	-5059
▁上野	-5060
▁見え	-5061
aigo	-5062
unin	-5063
▁sol	-5064
▁scro	-5065
▁attend	-5066
▁examples	-5067
70	-5068
小路	-5069
▁od	-5070
enly	-5071
▁concur	-5072
▁委	-5073
▁版	-5074
とめ	-5075
▁ごと	-5076
▁non	-5077
▁newly	-5078
▁trade	-5079
▁gained	-5080
▁library	-5081
▁precinct	-5082
▁づ	-5083
▁衰	-5084
▁醤	-5085
▁主な	-5086
▁分類	-5087
ivid	-5088
▁sons	-5089
▁enthron	-5090
▁臣	-5091
amo	-5092
▁プロ	-5093
▁best	-5094
▁体制	-5095
▁呼称	-5096
tery	-5097
▁あまり	-5098
▁fail	-5099
▁forest	-5100
▁object	-5101
▁_	-5102
abi	-5103
omm	-5104
▁meat	-5105
▁sour	-5106
▁colle	-5107
▁actors	-5108
▁takauji	-5109
▁mitsuhide	-5110
▁やす	-5111
▁出雲	-5112
▁古事	-5113
▁帰国	-5114
▁face	-5115
ential	-5116
▁transportation	-5117
ex	-5118
▁血	-5119
ゆる	-5120
立て	-5121
urs	-5122
▁feat	-5123
▁emperors	-5124
▁participated	-5125
▁標	-5126
▁攻撃	-5127
▁金剛	-5128
▁sar	-5129
erved	-5130
ikawa	-5131
▁domains	-5132
がて	-5133
くな	-5134
whe	-5135
stand	-5136
▁comes	-5137
▁nobut	-5138
uscript	-5139
▁deputy	-5140
▁ticket	-5141
14	-5142
▁積	-5143
▁78	-5144
▁hori	-5145
▁contr	-5146
▁langu	-5147
▁model	-5148
▁entire	-5149
▁figure	-5150
▁manuscript	-5151
▁distinguished	-5152
isc	-5153
▁あら	-5154
▁特別	-5155
▁broke	-5156
▁izumo	-5157
▁formal	-5158
▁享保	-5159
▁思想	-5160
▁近世	-5161
▁やがて	-5162
▁teac	-5163
▁regarding	-5164
▁もし	-5165
▁再建	-5166
ffer	-5167
▁皇太子	-5168
iated	-5169
▁cher	-5170
▁live	-5171
▁shib	-5172
▁flower	-5173
▁習	-5174
▁項	-5175
▁別名	-5176
▁自由	-5177
▁mim	-5178
▁sup	-5179
ction	-5180
▁pros	-5181
▁always	-5182
▁incorp	-5183
▁特急	-5184
▁組織	-5185
▁abe	-5186
▁lin	-5187
▁susp	-5188
▁attemp	-5189
▁mountains	-5190
▁yamashina	-5191
▁succession	-5192
cha	-5193
▁上記	-5194
▁庭園	-5195
▁決定	-5196
▁tosa	-5197
▁disco	-5198
▁outer	-5199
27	-5200
▁免	-5201
▁甘	-5202
ーク	-5203
▁家人	-5204
▁息子	-5205
▁賀茂	-5206
▁醤油	-5207
▁鳥羽	-5208
▁1889	-5209
▁anno	-5210
▁kong	-5211
▁ouchi	-5212
▁azuchi	-5213
▁saying	-5214
▁describ	-5215
▁flowers	-5216
▁依	-5217
▁厚	-5218
▁弾	-5219
▁菅	-5220
▁儀式	-5221
▁転任	-5222
iment	-5223
▁goto	-5224
▁closed	-5225
▁instruc	-5226
azu	-5227
▁ep	-5228
▁人間	-5229
▁軍事	-5230
▁146	-5231
▁buses	-5232
▁hyogo	-5233
▁clothes	-5234
▁隣	-5235
▁公卿	-5236
▁右京	-5237
▁相続	-5238
jutsu	-5239
▁your	-5240
▁going	-5241
▁medic	-5242
▁critic	-5243
15	-5244
▁中宮	-5245
▁今日	-5246
▁嫡男	-5247
▁春日	-5248
▁真宗	-5249
lict	-5250
▁射	-5251
▁恵	-5252
▁輸	-5253
▁上洛	-5254
ream	-5255
▁同じく	-5256
▁shink	-5257
▁shoen	-5258
ivalent	-5259
▁agency	-5260
▁suffer	-5261
▁project	-5262
▁ポ	-5263
▁幕末	-5264
▁aud	-5265
▁chujo	-5266
▁conqu	-5267
▁章	-5268
レー	-5269
▁ちな	-5270
▁乗り	-5271
▁隠居	-5272
▁113	-5273
▁yuki	-5274
iation	-5275
▁dried	-5276
▁completely	-5277
▁profession	-5278
ash	-5279
▁69	-5280
thing	-5281
▁disapp	-5282
▁request	-5283
▁independent	-5284
▁棟	-5285
▁砂	-5286
ayu	-5287
ith	-5288
▁すぐ	-5289
▁合併	-5290
▁蔵人	-5291
▁行な	-5292
▁assass	-5293
bs	-5294
▁ツ	-5295
▁庄	-5296
ars	-5297
ika	-5298
▁以来	-5299
osition	-5300
▁戒	-5301
▁抜	-5302
gak	-5303
▁神戸	-5304
▁155	-5305
▁pil	-5306
▁warring	-5307
▁ishikawa	-5308
▁warriors	-5309
▁散	-5310
▁筑	-5311
▁gi	-5312
▁生年	-5313
▁西園	-5314
▁obs	-5315
▁抄	-5316
▁琵	-5317
▁紹	-5318
▁薄	-5319
▁すべ	-5320
▁協会	-5321
▁尊氏	-5322
▁山科	-5323
▁琵琶	-5324
▁things	-5325
▁wakashu	-5326
▁direction	-5327
▁equivalent	-5328
oru	-5329
eric	-5330
ionji	-5331
▁shaku	-5332
▁across	-5333
▁document	-5334
つけ	-5335
bor	-5336
▁国司	-5337
▁aris	-5338
▁ukyo	-5339
▁beaut	-5340
▁occup	-5341
▁材	-5342
▁飾	-5343
ients	-5344
rying	-5345
▁探	-5346
▁沖	-5347
▁苦	-5348
▁証	-5349
▁騎	-5350
▁任官	-5351
▁坐像	-5352
▁生涯	-5353
▁製造	-5354
▁集め	-5355
▁祈	-5356
▁地蔵	-5357
▁安土	-5358
▁持ち	-5359
▁海軍	-5360
▁grow	-5361
▁kobe	-5362
▁tower	-5363
▁熱	-5364
▁界	-5365
▁停車	-5366
▁独自	-5367
izen	-5368
▁123	-5369
▁size	-5370
▁conflict	-5371
▁争	-5372
▁煮	-5373
▁狩	-5374
ージ	-5375
▁伝説	-5376
▁所領	-5377
▁secretary	-5378
▁temporary	-5379
▁尚	-5380
▁軽	-5381
▁屋敷	-5382
▁崩御	-5383
▁編纂	-5384
▁述べ	-5385
▁開催	-5386
ukyo	-5387
▁ming	-5388
▁hachiman	-5389
▁豆	-5390
▁錦	-5391
ont	-5392
▁分け	-5393
▁free	-5394
▁iron	-5395
▁tori	-5396
▁favor	-5397
▁kimono	-5398
▁facility	-5399
▁karasuma	-5400
78	-5401
▁唯	-5402
ップ	-5403
▁86	-5404
▁やま	-5405
hind	-5406
▁ino	-5407
▁rare	-5408
▁rele	-5409
▁cherry	-5410
▁collected	-5411
▁ベ	-5412
bei	-5413
▁83	-5414
▁ph	-5415
▁自然	-5416
atory	-5417
lement	-5418
▁recent	-5419
▁ordinary	-5420
▁ao	-5421
▁比較	-5422
▁電鉄	-5423
▁bot	-5424
▁won	-5425
ously	-5426
▁feel	-5427
▁ware	-5428
▁either	-5429
▁officers	-5430
▁ぞ	-5431
▁因	-5432
▁泉	-5433
▁udon	-5434
▁saigo	-5435
▁saionji	-5436
▁treated	-5437
▁併	-5438
▁播	-5439
▁淡	-5440
the	-5441
tic	-5442
▁行政	-5443
▁釈迦	-5444
▁電車	-5445
omon	-5446
▁emplo	-5447
▁portra	-5448
▁rather	-5449
▁illness	-5450
▁individ	-5451
▁beautiful	-5452
▁返	-5453
ャン	-5454
ium	-5455
▁かな	-5456
▁反対	-5457
▁1990	-5458
▁1997	-5459
▁navy	-5460
▁poets	-5461
▁advanced	-5462
ush	-5463
▁だい	-5464
▁別当	-5465
▁師事	-5466
▁延喜	-5467
▁1987	-5468
▁tenno	-5469
▁echizen	-5470
▁opinion	-5471
▁periods	-5472
▁festivals	-5473
▁international	-5474
fts	-5475
nin	-5476
▁abs	-5477
anori	-5478
essed	-5479
▁gion	-5480
▁give	-5481
▁sada	-5482
mission	-5483
▁behind	-5484
▁ruling	-5485
▁restored	-5486
▁但	-5487
▁巨	-5488
▁札	-5489
▁身分	-5490
▁領主	-5491
izan	-5492
oned	-5493
▁gin	-5494
▁mix	-5495
▁might	-5496
▁commit	-5497
▁teacher	-5498
▁concurrently	-5499
▁訳	-5500
▁吹	-5501
▁祇	-5502
▁鴨	-5503
hem	-5504
▁li	-5505
akusa	-5506
oting	-5507
▁2002	-5508
▁surv	-5509
▁izumi	-5510
▁nagoya	-5511
▁銭	-5512
▁鷹	-5513
▁基づ	-5514
▁変更	-5515
▁快速	-5516
▁開設	-5517
ested	-5518
▁hang	-5519
▁mess	-5520
▁mirr	-5521
▁stri	-5522
raphic	-5523
▁sides	-5524
▁choshu	-5525
▁warrior	-5526
▁裁	-5527
▁謀	-5528
▁一時	-5529
▁新選	-5530
▁egg	-5531
▁北海道	-5532
▁seal	-5533
▁finan	-5534
council	-5535
▁ceremonies	-5536
▁塚	-5537
揚げ	-5538
▁直接	-5539
usen	-5540
▁mart	-5541
▁compet	-5542
▁reported	-5543
▁斬	-5544
▁陽	-5545
▁障	-5546
▁念仏	-5547
▁政策	-5548
▁165	-5549
akuni	-5550
▁1872	-5551
▁naid	-5552
▁surn	-5553
▁takes	-5554
▁normal	-5555
councilor	-5556
ru	-5557
▁秘	-5558
▁土佐	-5559
▁法名	-5560
onym	-5561
reng	-5562
▁cat	-5563
▁ess	-5564
▁すべて	-5565
itama	-5566
▁kondo	-5567
itation	-5568
▁actual	-5569
▁treaty	-5570
▁respons	-5571
▁献	-5572
ilt	-5573
▁43	-5574
▁急行	-5575
ones	-5576
▁左衛門	-5577
asing	-5578
iques	-5579
▁rain	-5580
▁dates	-5581
ye	-5582
▁似	-5583
御門	-5584
iku	-5585
▁二人	-5586
▁神話	-5587
▁製作	-5588
▁ink	-5589
▁福知山	-5590
imoto	-5591
usted	-5592
▁toba	-5593
▁eaten	-5594
▁legal	-5595
▁harima	-5596
▁settsu	-5597
▁96	-5598
▁果た	-5599
▁蘇我	-5600
▁辞任	-5601
oryu	-5602
▁148	-5603
▁1867	-5604
▁駿	-5605
▁制定	-5606
▁twe	-5607
▁becomes	-5608
▁ichikawa	-5609
▁committed	-5610
▁育	-5611
▁適	-5612
ora	-5613
▁光秀	-5614
▁西郷	-5615
zoku	-5616
▁jizo	-5617
▁dazai	-5618
▁floor	-5619
▁concerning	-5620
77	-5621
der	-5622
▁fa	-5623
▁事務	-5624
▁前後	-5625
▁正二	-5626
using	-5627
▁1928	-5628
▁streng	-5629
ashiyama	-5630
▁arrived	-5631
▁cooking	-5632
▁尽	-5633
▁つつ	-5634
▁卒業	-5635
▁大師	-5636
ging	-5637
▁surf	-5638
▁*	-5639
ran	-5640
▁新た	-5641
▁americ	-5642
▁burial	-5643
▁subway	-5644
▁united	-5645
▁winter	-5646
▁elementary	-5647
▁management	-5648
ek	-5649
▁刊	-5650
▁小野	-5651
▁茶道	-5652
riage	-5653
▁morn	-5654
▁scul	-5655
▁cannot	-5656
▁derived	-5657
▁particularly	-5658
らく	-5659
kyu	-5660
▁37	-5661
▁師範	-5662
▁gar	-5663
akata	-5664
▁repl	-5665
etsugu	-5666
▁hankyu	-5667
▁industry	-5668
▁瀬	-5669
▁天下	-5670
▁期間	-5671
▁登録	-5672
左衛門	-5673
gami	-5674
umasa	-5675
▁1884	-5676
▁peer	-5677
▁tank	-5678
▁consist	-5679
▁元号	-5680
▁1864	-5681
▁oshi	-5682
いに	-5683
▁全て	-5684
▁薬師	-5685
▁合わせ	-5686
otion	-5687
▁stip	-5688
▁engaged	-5689
▁explain	-5690
▁fukuoka	-5691
▁ざ	-5692
▁倒	-5693
▁詠	-5694
▁みな	-5695
osho	-5696
▁prohib	-5697
▁suggest	-5698
phe	-5699
▁63	-5700
▁担当	-5701
▁摂津	-5702
osing	-5703
▁decl	-5704
▁told	-5705
▁いわゆる	-5706
▁excav	-5707
▁hokke	-5708
▁listed	-5709
▁thirty	-5710
▁yoshis	-5711
▁background	-5712
▁classified	-5713
▁逸	-5714
▁閉	-5715
ジア	-5716
▁hol	-5717
▁1980	-5718
▁shak	-5719
▁shog	-5720
▁monks	-5721
▁sushi	-5722
▁recomm	-5723
▁belonging	-5724
▁reconstruc	-5725
▁鞍	-5726
▁三好	-5727
▁下車	-5728
▁福岡	-5729
bers	-5730
▁sle	-5731
▁ones	-5732
▁sudd	-5733
▁atago	-5734
▁mikawa	-5735
▁script	-5736
▁politics	-5737
▁脇	-5738
▁大伴	-5739
▁教授	-5740
▁熊野	-5741
koji	-5742
▁kot	-5743
▁hiei	-5744
▁daishi	-5745
▁hitachi	-5746
▁entertain	-5747
▁到	-5748
▁効	-5749
▁級	-5750
▁嵐山	-5751
▁編入	-5752
▁離れ	-5753
itoku	-5754
▁diss	-5755
▁done	-5756
▁moon	-5757
▁ship	-5758
▁tool	-5759
teenth	-5760
▁kasuga	-5761
▁matters	-5762
▁medical	-5763
▁prevent	-5764
▁naidaijin	-5765
▁!	-5766
▁儒	-5767
イス	-5768
▁34	-5769
▁切り	-5770
▁阪急	-5771
lish	-5772
▁iyo	-5773
ansen	-5774
asted	-5775
japan	-5776
okami	-5777
▁runs	-5778
▁learning	-5779
▁confucian	-5780
▁望	-5781
▁宮内	-5782
▁永禄	-5783
ppon	-5784
▁deb	-5785
▁coup	-5786
▁shows	-5787
▁existence	-5788
▁additional	-5789
▁葉	-5790
irt	-5791
▁小説	-5792
oter	-5793
▁nom	-5794
▁1863	-5795
inated	-5796
▁prono	-5797
▁dispatched	-5798
▁倉	-5799
▁僧侶	-5800
▁祭神	-5801
ster	-5802
▁fer	-5803
acted	-5804
ushin	-5805
▁1870	-5806
▁daibu	-5807
▁plays	-5808
▁career	-5809
▁減	-5810
aza	-5811
▁uj	-5812
▁王朝	-5813
▁pit	-5814
imasa	-5815
▁sumi	-5816
▁piece	-5817
▁individual	-5818
リス	-5819
▁しん	-5820
▁形成	-5821
▁播磨	-5822
▁文政	-5823
bara	-5824
jaku	-5825
▁pay	-5826
▁companies	-5827
▁dedicated	-5828
▁recognized	-5829
▁疑	-5830
bol	-5831
▁人気	-5832
▁条約	-5833
▁祇園	-5834
▁aim	-5835
▁lay	-5836
▁biwa	-5837
▁hands	-5838
▁turned	-5839
▁starting	-5840
▁supposed	-5841
▁appearance	-5842
▁企	-5843
▁案	-5844
▁諱	-5845
▁随	-5846
▁優れ	-5847
▁宮津	-5848
▁改正	-5849
▁晩年	-5850
grim	-5851
▁jok	-5852
▁1898	-5853
▁mito	-5854
▁mune	-5855
▁excell	-5856
▁kurodo	-5857
▁seated	-5858
▁pilgrim	-5859
▁shinano	-5860
▁surname	-5861
▁ヨ	-5862
▁夕	-5863
▁斉	-5864
▁既	-5865
▁菓	-5866
▁ドラ	-5867
▁侍従	-5868
▁寺社	-5869
▁山口	-5870
▁普及	-5871
▁暗殺	-5872
acqu	-5873
▁kanji	-5874
▁ninth	-5875
▁taste	-5876
▁rakugo	-5877
▁morning	-5878
▁shotoku	-5879
▁recorded	-5880
▁危	-5881
▁双	-5882
▁昌	-5883
▁nh	-5884
▁かん	-5885
▁毎年	-5886
▁確立	-5887
▁gre	-5888
▁東海道	-5889
etada	-5890
▁lake	-5891
▁issue	-5892
▁daisho	-5893
▁medicine	-5894
▁hiroshima	-5895
▁騒	-5896
五郎	-5897
▁つく	-5898
▁冷泉	-5899
▁禁止	-5900
▁gan	-5901
▁able	-5902
▁lect	-5903
▁pick	-5904
oteric	-5905
▁shonii	-5906
▁opening	-5907
▁奪	-5908
▁桐	-5909
▁紅	-5910
児島	-5911
bre	-5912
▁88	-5913
▁98	-5914
▁vi	-5915
▁一揆	-5916
▁挙兵	-5917
▁経営	-5918
▁越前	-5919
▁128	-5920
▁adj	-5921
▁フラン	-5922
▁1945	-5923
▁deal	-5924
▁student	-5925
▁撮	-5926
▁貫	-5927
▁99	-5928
▁単位	-5929
ustr	-5930
▁nhk	-5931
▁wid	-5932
▁きょう	-5933
▁gojo	-5934
▁appoint	-5935
▁chronicles	-5936
▁restaurants	-5937
▁便	-5938
▁候	-5939
▁油	-5940
▁象	-5941
久保	-5942
▁dog	-5943
▁hors	-5944
▁tenmu	-5945
▁symbol	-5946
▁treasures	-5947
▁yoshimitsu	-5948
71	-5949
▁銘	-5950
oms	-5951
▁広島	-5952
▁記載	-5953
▁読み	-5954
▁qing	-5955
ashige	-5956
▁biography	-5957
▁influenced	-5958
▁箇	-5959
▁買	-5960
▁あり	-5961
head	-5962
atsuko	-5963
▁meant	-5964
▁peerage	-5965
ープ	-5966
▁甲斐	-5967
▁菓子	-5968
▁und	-5969
insul	-5970
▁blood	-5971
▁railways	-5972
▁又	-5973
▁すな	-5974
▁子供	-5975
▁役者	-5976
▁fine	-5977
▁miyazu	-5978
▁managed	-5979
▁existing	-5980
▁grandson	-5981
▁peninsul	-5982
▁railroad	-5983
▁eventually	-5984
▁芝	-5985
くは	-5986
▁大宮	-5987
▁市川	-5988
▁最高	-5989
▁諸国	-5990
isan	-5991
kiyo	-5992
▁lab	-5993
ented	-5994
kofun	-5995
▁contains	-5996
▁侵	-5997
▁唱	-5998
▁株	-5999
▁洛	-6000
古屋	-6001
▁主義	-6002
▁再興	-6003
▁指揮	-6004
▁議員	-6005
ager	-6006
▁126	-6007
child	-6008
ryaku	-6009
▁shiba	-6010
▁discus	-6011
▁english	-6012
▁峠	-6013
▁拠	-6014
▁箱	-6015
▁45	-6016
▁キリ	-6017
▁導入	-6018
▁山田	-6019
▁新田	-6020
asho	-6021
▁sem	-6022
▁spl	-6023
izing	-6024
▁shops	-6025
▁installed	-6026
▁techniques	-6027
▁accompanied	-6028
▁grandfather	-6029
▁代々	-6030
▁教え	-6031
▁発見	-6032
▁落語	-6033
▁討ち	-6034
igen	-6035
odai	-6036
▁rebu	-6037
▁michin	-6038
▁transfer	-6039
▁shirakawa	-6040
▁ingredients	-6041
▁surrounding	-6042
74	-6043
▁壁	-6044
▁批	-6045
▁罪	-6046
▁肥	-6047
▁輪	-6048
▁けれ	-6049
▁修行	-6050
▁博士	-6051
▁moro	-6052
▁betto	-6053
▁battles	-6054
▁painted	-6055
▁language	-6056
▁relocated	-6057
79	-6058
▁ボ	-6059
▁埋	-6060
eru	-6061
▁タン	-6062
▁三河	-6063
▁文明	-6064
isei	-6065
zuke	-6066
▁anim	-6067
▁coin	-6068
▁hino	-6069
▁sumo	-6070
▁扇	-6071
シア	-6072
whi	-6073
▁ay	-6074
▁わけ	-6075
▁伊達	-6076
▁作者	-6077
▁滅亡	-6078
▁移転	-6079
▁終わ	-6080
▁dol	-6081
inojo	-6082
ission	-6083
▁guest	-6084
▁godaigo	-6085
▁christian	-6086
▁organized	-6087
▁yoshinaka	-6088
▁雄	-6089
igo	-6090
mik	-6091
▁宗家	-6092
▁落ち	-6093
▁hen	-6094
▁key	-6095
▁名古屋	-6096
▁bell	-6097
▁jing	-6098
▁shop	-6099
ulated	-6100
▁okubo	-6101
▁songs	-6102
▁esoteric	-6103
▁financial	-6104
▁茂	-6105
leg	-6106
▁宮中	-6107
▁発表	-6108
▁長州	-6109
▁phi	-6110
vered	-6111
▁kofun	-6112
▁neigh	-6113
▁cultiv	-6114
▁inspect	-6115
▁matsuri	-6116
▁meeting	-6117
▁句	-6118
▁寝	-6119
▁慈	-6120
ild	-6121
rop	-6122
▁39	-6123
▁内部	-6124
▁少将	-6125
▁形態	-6126
▁打ち	-6127
▁百済	-6128
▁110	-6129
▁avo	-6130
▁1907	-6131
▁alco	-6132
▁academ	-6133
▁quality	-6134
rd	-6135
▁張	-6136
▁忍	-6137
▁波	-6138
▁陶	-6139
▁つな	-6140
▁京極	-6141
▁女子	-6142
▁年度	-6143
▁後世	-6144
▁成功	-6145
▁摂政	-6146
▁確認	-6147
▁asa	-6148
▁南北朝	-6149
▁1873	-6150
▁repe	-6151
▁stick	-6152
ibility	-6153
▁describes	-6154
▁jushiinoge	-6155
▁ri	-6156
▁工事	-6157
▁139	-6158
▁kiz	-6159
▁thick	-6160
▁disappear	-6161
▁exhibition	-6162
▁価	-6163
▁鈴	-6164
ich	-6165
▁一門	-6166
▁入り	-6167
▁安政	-6168
gumi	-6169
sure	-6170
time	-6171
▁ちょう	-6172
orial	-6173
▁ashi	-6174
▁bowl	-6175
▁echigo	-6176
▁interp	-6177
▁peninsula	-6178
▁architecture	-6179
▁犬	-6180
▁簡	-6181
▁主張	-6182
▁図書	-6183
usion	-6184
▁hime	-6185
▁shimog	-6186
▁層	-6187
▁半島	-6188
▁学生	-6189
▁改革	-6190
▁進め	-6191
▁遺跡	-6192
▁kara	-6193
▁syll	-6194
▁bloss	-6195
▁haiku	-6196
▁heike	-6197
▁kinds	-6198
▁otani	-6199
▁shown	-6200
▁kyogen	-6201
▁longer	-6202
▁variety	-6203
▁yamaguchi	-6204
▁achievements	-6205
▁純	-6206
▁様式	-6207
▁権力	-6208
▁皇室	-6209
▁jik	-6210
▁kago	-6211
omatic	-6212
▁campus	-6213
▁juichii	-6214
▁kyogoku	-6215
▁offered	-6216
▁奏	-6217
▁幽	-6218
▁環	-6219
▁cy	-6220
▁しょ	-6221
▁小さ	-6222
▁常陸	-6223
▁pond	-6224
▁negot	-6225
▁table	-6226
▁surface	-6227
▁consists	-6228
pu	-6229
▁欠	-6230
ラス	-6231
▁幹線	-6232
▁途中	-6233
umon	-6234
▁imm	-6235
▁1949	-6236
▁territories	-6237
▁げ	-6238
oke	-6239
▁85	-6240
▁三重	-6241
▁台湾	-6242
▁125	-6243
▁hin	-6244
▁1931	-6245
▁2001	-6246
▁emer	-6247
▁mine	-6248
▁prot	-6249
▁double	-6250
▁engine	-6251
▁magistr	-6252
▁articles	-6253
▁濃	-6254
こと	-6255
らえ	-6256
ala	-6257
▁65	-6258
▁昇進	-6259
▁紀伊	-6260
▁mill	-6261
▁rock	-6262
▁stay	-6263
▁taiwan	-6264
▁prosper	-6265
▁anthology	-6266
▁connected	-6267
▁incorporated	-6268
oca	-6269
▁密教	-6270
▁文久	-6271
▁祖父	-6272
▁立場	-6273
▁129	-6274
▁nai	-6275
▁大久保	-6276
▁extreme	-6277
▁officially	-6278
▁pronounced	-6279
▁出版	-6280
▁官人	-6281
▁逃れ	-6282
▁sie	-6283
organ	-6284
oroku	-6285
▁sank	-6286
▁curren	-6287
▁funeral	-6288
va	-6289
▁止	-6290
十郎	-6291
jun	-6292
zed	-6293
▁62	-6294
▁zo	-6295
▁規定	-6296
▁左近衛	-6297
▁mind	-6298
▁rein	-6299
▁villages	-6300
▁platforms	-6301
▁韓	-6302
蕎麦	-6303
hai	-6304
▁仮名	-6305
▁元服	-6306
▁公開	-6307
▁役割	-6308
▁陰陽	-6309
▁175	-6310
▁koshi	-6311
▁value	-6312
▁tsuchi	-6313
▁夢	-6314
▁掲	-6315
▁敬	-6316
▁狭	-6317
▁盆	-6318
▁讃	-6319
ずか	-6320
hyo	-6321
▁ga	-6322
▁ころ	-6323
▁アル	-6324
▁初め	-6325
fully	-6326
▁items	-6327
▁kumamoto	-6328
▁professional	-6329
▁干	-6330
▁牧	-6331
▁井上	-6332
▁兵衛	-6333
orin	-6334
▁1950	-6335
▁hito	-6336
▁toji	-6337
▁quite	-6338
▁arrest	-6339
▁kumano	-6340
▁regional	-6341
▁我	-6342
▁93	-6343
▁吉良	-6344
▁官職	-6345
▁日野	-6346
▁訪れ	-6347
ming	-6348
chika	-6349
▁1929	-6350
▁dise	-6351
▁exam	-6352
▁idea	-6353
▁courts	-6354
▁consort	-6355
▁determin	-6356
▁恐	-6357
▁軒	-6358
▁いく	-6359
▁全体	-6360
▁西洋	-6361
ando	-6362
ranking	-6363
▁exists	-6364
▁mission	-6365
▁profess	-6366
▁yakushi	-6367
li	-6368
▁刺	-6369
▁赴	-6370
り返	-6371
▁大谷	-6372
▁実施	-6373
chang	-6374
▁nick	-6375
▁access	-6376
▁mostly	-6377
▁声	-6378
▁舎	-6379
▁憲法	-6380
▁tun	-6381
while	-6382
▁1890	-6383
▁aizu	-6384
▁もしくは	-6385
▁yield	-6386
▁screen	-6387
▁reading	-6388
▁preservation	-6389
▁去	-6390
貿易	-6391
nyo	-6392
uis	-6393
▁ap	-6394
▁前方	-6395
▁区別	-6396
▁数え	-6397
▁法皇	-6398
▁盛ん	-6399
ames	-6400
▁1910	-6401
▁agre	-6402
▁seem	-6403
▁eating	-6404
▁reizei	-6405
▁college	-6406
▁kamigyo	-6407
▁prepared	-6408
▁classical	-6409
▁registered	-6410
▁救	-6411
▁粉	-6412
sui	-6413
▁かた	-6414
▁さま	-6415
▁伊藤	-6416
▁地名	-6417
▁左右	-6418
▁敗れ	-6419
▁最大	-6420
▁貿易	-6421
work	-6422
▁fan	-6423
anded	-6424
▁expl	-6425
▁icoca	-6426
▁sugar	-6427
▁circum	-6428
▁concub	-6429
▁product	-6430
44	-6431
▁堺	-6432
▁岐	-6433
わち	-6434
has	-6435
▁情報	-6436
▁焼失	-6437
▁熊本	-6438
name	-6439
teen	-6440
▁inoue	-6441
japanese	-6442
▁iwakura	-6443
▁version	-6444
▁yoshiaki	-6445
▁kagoshima	-6446
▁respectively	-6447
▁珍	-6448
dan	-6449
▁大蔵	-6450
▁着用	-6451
▁蕎麦	-6452
▁kii	-6453
▁rad	-6454
▁1993	-6455
▁mass	-6456
▁rikyu	-6457
▁scale	-6458
▁integr	-6459
▁tracks	-6460
▁captured	-6461
▁杉	-6462
ロッ	-6463
▁向け	-6464
▁施行	-6465
▁本山	-6466
▁長岡	-6467
chin	-6468
▁yet	-6469
▁pill	-6470
▁kotsu	-6471
cription	-6472
▁illustr	-6473
▁guardian	-6474
▁妃	-6475
▁うど	-6476
▁会津	-6477
▁六角	-6478
▁含め	-6479
▁変わ	-6480
▁本名	-6481
▁清水	-6482
▁狂言	-6483
ends	-6484
▁109	-6485
▁asc	-6486
▁seki	-6487
▁すなわち	-6488
unomiya	-6489
▁meanwhile	-6490
▁〕	-6491
▁雨	-6492
ンジ	-6493
▁推定	-6494
▁1918	-6495
▁bring	-6496
ication	-6497
▁yamada	-6498
▁kingdom	-6499
▁neighbor	-6500
▁yamagata	-6501
▁〔	-6502
ped	-6503
▁住宅	-6504
▁保護	-6505
▁城主	-6506
▁大路	-6507
▁山号	-6508
▁dow	-6509
▁kog	-6510
▁mom	-6511
essho	-6512
odate	-6513
▁coop	-6514
▁belief	-6515
▁report	-6516
▁slight	-6517
▁stands	-6518
▁frequently	-6519
▁郵	-6520
zei	-6521
▁同母	-6522
▁愛宕	-6523
▁戦死	-6524
▁指導	-6525
▁豪族	-6526
▁ari	-6527
▁koga	-6528
▁dismis	-6529
▁commission	-6530
▁蝦	-6531
ils	-6532
▁55	-6533
▁岡山	-6534
▁治承	-6535
eing	-6536
▁pra	-6537
▁つまり	-6538
▁鹿児島	-6539
isuke	-6540
itude	-6541
▁salt	-6542
▁exper	-6543
▁manor	-6544
▁compil	-6545
▁covered	-6546
▁martial	-6547
▁something	-6548
▁associated	-6549
▁懐	-6550
▁顔	-6551
▁もう	-6552
▁対応	-6553
▁新し	-6554
▁game	-6555
▁hond	-6556
▁peas	-6557
▁shizu	-6558
▁reasons	-6559
▁literary	-6560
▁excellent	-6561
▁arashiyama	-6562
▁passengers	-6563
▁punishment	-6564
▁敦	-6565
▁走	-6566
▁42	-6567
▁たい	-6568
▁屋根	-6569
▁採用	-6570
▁水戸	-6571
▁近く	-6572
ware	-6573
▁offer	-6574
▁surve	-6575
▁merged	-6576
▁nature	-6577
▁removed	-6578
▁maternal	-6579
▁―	-6580
ンス	-6581
▁平城	-6582
▁背景	-6583
▁分かれ	-6584
▁mura	-6585
aguchi	-6586
▁marriage	-6587
▁necessary	-6588
▁operations	-6589
▁笠	-6590
▁蘭	-6591
urb	-6592
▁79	-6593
▁まず	-6594
▁信濃	-6595
▁寛文	-6596
▁臨時	-6597
▁造営	-6598
▁鞍馬	-6599
dono	-6600
atake	-6601
▁movie	-6602
▁pictures	-6603
▁followers	-6604
▁刑	-6605
▁撤	-6606
▁浦	-6607
▁猿	-6608
▁皮	-6609
えば	-6610
ちら	-6611
▁応永	-6612
▁池田	-6613
ango	-6614
haku	-6615
maru	-6616
anobu	-6617
icted	-6618
▁mirror	-6619
▁concept	-6620
▁健	-6621
▁撮影	-6622
▁法人	-6623
ayuki	-6624
▁1996	-6625
▁clai	-6626
cribed	-6627
ulations	-6628
▁teachings	-6629
fe	-6630
▁繁	-6631
▁意見	-6632
cour	-6633
▁しばし	-6634
omori	-6635
▁self	-6636
▁target	-6637
▁holding	-6638
▁tokaido	-6639
▁紋	-6640
▁鋳	-6641
ヶ原	-6642
ief	-6643
▁下記	-6644
▁106	-6645
▁108	-6646
▁pet	-6647
▁shug	-6648
▁junii	-6649
▁revol	-6650
▁veget	-6651
▁shigen	-6652
▁enthronement	-6653
ne	-6654
▁抱	-6655
▁肉	-6656
▁須	-6657
▁おこ	-6658
▁史跡	-6659
▁旗本	-6660
ills	-6661
▁gra	-6662
▁sty	-6663
▁アジア	-6664
▁1970	-6665
▁acqu	-6666
▁chok	-6667
▁doctor	-6668
▁duties	-6669
▁termin	-6670
ee	-6671
▁58	-6672
▁供養	-6673
▁功績	-6674
▁大友	-6675
合わせ	-6676
uden	-6677
▁1994	-6678
▁chiba	-6679
▁drawn	-6680
▁plant	-6681
▁shall	-6682
▁shiro	-6683
▁space	-6684
▁confer	-6685
▁imagawa	-6686
▁竜	-6687
▁練	-6688
▁今出	-6689
▁出土	-6690
▁千葉	-6691
▁後継	-6692
▁興福	-6693
▁著色	-6694
▁越後	-6695
▁関連	-6696
▁phy	-6697
▁withd	-6698
▁simple	-6699
▁applied	-6700
▁brewing	-6701
▁okayama	-6702
▁condition	-6703
▁separated	-6704
▁撰	-6705
▁41	-6706
▁48	-6707
▁五条	-6708
▁岩倉	-6709
▁形状	-6710
▁行き	-6711
▁bad	-6712
▁今出川	-6713
▁1881	-6714
▁sato	-6715
ishiki	-6716
▁compared	-6717
▁端	-6718
▁拡大	-6719
▁見せ	-6720
vere	-6721
▁uta	-6722
asaka	-6723
ching	-6724
▁1895	-6725
▁quest	-6726
igahara	-6727
▁kofuku	-6728
▁changes	-6729
▁interest	-6730
▁professor	-6731
▁請	-6732
law	-6733
▁建造	-6734
▁稲荷	-6735
▁追い	-6736
▁nit	-6737
▁tat	-6738
▁yag	-6739
sanmi	-6740
▁kano	-6741
▁koya	-6742
▁vict	-6743
itsuna	-6744
▁sanet	-6745
▁crafts	-6746
▁ceremonial	-6747
▁寸	-6748
▁曼	-6749
▁zu	-6750
▁しい	-6751
▁とう	-6752
▁不動	-6753
▁必ず	-6754
cent	-6755
▁fle	-6756
▁もっと	-6757
ordin	-6758
▁holid	-6759
▁makes	-6760
▁royal	-6761
▁resident	-6762
▁consequently	-6763
▁題	-6764
阿弥	-6765
▁国民	-6766
▁蝦夷	-6767
▁違い	-6768
▁1000	-6769
▁move	-6770
▁しばしば	-6771
▁ruled	-6772
▁wakasa	-6773
▁shingen	-6774
▁fighting	-6775
▁邦	-6776
▁批判	-6777
▁郵便	-6778
duce	-6779
▁cit	-6780
▁iga	-6781
▁ina	-6782
▁うどん	-6783
▁1926	-6784
ptions	-6785
▁alcoho	-6786
▁geneal	-6787
▁kurama	-6788
▁planned	-6789
▁奇	-6790
▁ヤマ	-6791
▁今川	-6792
anagi	-6793
▁1911	-6794
▁valu	-6795
▁lacqu	-6796
▁beauty	-6797
▁defeat	-6798
▁reorgan	-6799
▁wakayama	-6800
▁implement	-6801
▁yoshimasa	-6802
76	-6803
▁五十	-6804
▁大石	-6805
▁式部	-6806
▁149	-6807
▁ger	-6808
▁jim	-6809
▁1876	-6810
▁1999	-6811
▁okin	-6812
atsune	-6813
taisha	-6814
▁playing	-6815
▁typical	-6816
▁working	-6817
▁investig	-6818
▁initially	-6819
▁yoshinobu	-6820
73	-6821
▁ネ	-6822
▁恋	-6823
▁綾	-6824
▁質	-6825
▁鑑	-6826
漬け	-6827
▁53	-6828
▁89	-6829
▁伊予	-6830
▁団体	-6831
▁天神	-6832
▁太平	-6833
▁改札	-6834
odes	-6835
abashi	-6836
▁cooked	-6837
▁future	-6838
▁routes	-6839
▁titles	-6840
▁greatly	-6841
▁distance	-6842
▁difference	-6843
レビ	-6844
▁刊行	-6845
▁加わ	-6846
▁国内	-6847
▁複数	-6848
▁dipl	-6849
▁pred	-6850
cement	-6851
▁kongo	-6852
▁accept	-6853
▁settle	-6854
▁enryaku	-6855
▁characteristics	-6856
▁蒲	-6857
▁和泉	-6858
▁寛政	-6859
▁詳し	-6860
▁諸説	-6861
▁mal	-6862
aring	-6863
▁bean	-6864
▁kira	-6865
▁nine	-6866
▁kugyo	-6867
anomiya	-6868
▁boiled	-6869
▁shinkansen	-6870
▁吾	-6871
ーン	-6872
▁天守	-6873
▁言え	-6874
itai	-6875
rief	-6876
▁インド	-6877
▁ドラマ	-6878
▁1995	-6879
▁bath	-6880
▁nari	-6881
▁russ	-6882
▁sham	-6883
▁tsub	-6884
▁sango	-6885
adegawa	-6886
▁dowager	-6887
▁ancestor	-6888
▁portrait	-6889
▁shosanmi	-6890
▁indicates	-6891
▁した	-6892
▁高倉	-6893
ller	-6894
▁400	-6895
▁和歌山	-6896
arted	-6897
matsu	-6898
▁1943	-6899
▁1946	-6900
▁1989	-6901
▁1998	-6902
▁cold	-6903
▁sans	-6904
▁saito	-6905
▁makino	-6906
▁exchange	-6907
らい	-6908
▁そば	-6909
▁唯一	-6910
▁国守	-6911
▁没後	-6912
tori	-6913
▁kad	-6914
toshi	-6915
isters	-6916
▁shimo	-6917
▁deliver	-6918
▁nenbutsu	-6919
▁彫	-6920
▁拒	-6921
▁人形	-6922
▁完全	-6923
▁家老	-6924
▁流行	-6925
▁男性	-6926
▁白河	-6927
▁統一	-6928
▁財政	-6929
▁1988	-6930
▁coff	-6931
▁rose	-6932
amichi	-6933
▁health	-6934
▁taught	-6935
▁castles	-6936
▁academic	-6937
▁extended	-6938
▁件	-6939
やか	-6940
ses	-6941
▁46	-6942
▁大山	-6943
▁太鼓	-6944
▁後半	-6945
hong	-6946
emasa	-6947
▁1877	-6948
▁dram	-6949
▁host	-6950
▁kimi	-6951
▁omiya	-6952
▁prime	-6953
▁market	-6954
▁monument	-6955
nd	-6956
▁照	-6957
▁伊賀	-6958
▁加賀	-6959
▁lie	-6960
▁テレビ	-6961
anami	-6962
▁masak	-6963
▁theat	-6964
▁urban	-6965
anosuke	-6966
▁rokkaku	-6967
▁declined	-6968
▁signific	-6969
▁yoshitaka	-6970
▁sekigahara	-6971
▁performances	-6972
▁ペ	-6973
▁脚	-6974
▁科学	-6975
▁若狭	-6976
▁行動	-6977
▁kis	-6978
▁1885	-6979
▁mach	-6980
▁demon	-6981
▁newsp	-6982
▁kagami	-6983
▁囲	-6984
タン	-6985
mit	-6986
▁ごろ	-6987
▁元和	-6988
▁庶民	-6989
▁絹本	-6990
▁車両	-6991
juku	-6992
▁mil	-6993
▁ryu	-6994
▁machi	-6995
▁yoshik	-6996
▁超	-6997
▁鳴	-6998
▁鵜	-6999
dess	-7000
▁upr	-7001
▁比叡山	-7002
luded	-7003
▁dewa	-7004
▁films	-7005
▁showed	-7006
▁recently	-7007
▁afterwards	-7008
▁卵	-7009
▁畠	-7010
▁歴代	-7011
▁かなり	-7012
asagi	-7013
▁kaga	-7014
▁sung	-7015
▁kawar	-7016
▁heaven	-7017
▁orders	-7018
▁sakone	-7019
▁invited	-7020
▁currency	-7021
▁員	-7022
▁富士	-7023
▁最古	-7024
▁殺害	-7025
▁管領	-7026
▁eki	-7027
▁siege	-7028
▁staff	-7029
▁villa	-7030
▁copper	-7031
▁exiled	-7032
▁mitsun	-7033
▁sculpt	-7034
▁community	-7035
▁帳	-7036
▁踏	-7037
テル	-7038
▁ib	-7039
▁位階	-7040
▁宇多	-7041
▁性格	-7042
▁東北	-7043
▁演奏	-7044
▁男子	-7045
▁連合	-7046
▁ses	-7047
▁1875	-7048
▁ball	-7049
▁mult	-7050
▁kichi	-7051
▁lotus	-7052
▁archer	-7053
▁temper	-7054
▁goddess	-7055
▁yamazaki	-7056
▁○	-7057
▁羅	-7058
▁保元	-7059
▁同一	-7060
▁所蔵	-7061
▁指摘	-7062
enin	-7063
ledge	-7064
▁1862	-7065
▁gifu	-7066
avored	-7067
▁kukai	-7068
▁oyama	-7069
▁tales	-7070
▁shikibu	-7071
▁circumst	-7072
▁remaining	-7073
▁magistrate	-7074
▁agricultural	-7075
▁勇	-7076
ton	-7077
▁主要	-7078
▁交流	-7079
▁制作	-7080
ians	-7081
llow	-7082
yoku	-7083
▁pse	-7084
andai	-7085
michi	-7086
▁note	-7087
▁rules	-7088
vereign	-7089
▁geisha	-7090
▁hatake	-7091
▁sanuki	-7092
▁select	-7093
▁rebuilt	-7094
▁patterns	-7095
▁instrument	-7096
ms	-7097
▁刻	-7098
▁漁	-7099
war	-7100
▁傾向	-7101
▁唱え	-7102
▁岐阜	-7103
▁文禄	-7104
▁降伏	-7105
▁eno	-7106
▁raw	-7107
ayasu	-7108
yoshu	-7109
▁blue	-7110
▁genp	-7111
▁maru	-7112
▁phys	-7113
▁フランス	-7114
atsukasa	-7115
▁annivers	-7116
▁function	-7117
▁yoshitomo	-7118
▁妖	-7119
▁繰	-7120
▁交渉	-7121
▁国鉄	-7122
▁学問	-7123
▁開山	-7124
▁右近衛	-7125
▁関ヶ原	-7126
▁1874	-7127
▁inaba	-7128
▁kanei	-7129
▁sight	-7130
▁contents	-7131
▁fukushima	-7132
▁sovereign	-7133
▁床	-7134
▁染	-7135
▁訴	-7136
bro	-7137
▁000	-7138
▁135	-7139
▁suddenly	-7140
▁imadegawa	-7141
▁hatakeyama	-7142
くり	-7143
▁大仏	-7144
▁彼女	-7145
▁村上	-7146
▁静岡	-7147
▁1899	-7148
called	-7149
▁narrow	-7150
▁simply	-7151
▁leaving	-7152
▁hatamoto	-7153
▁michinaga	-7154
ーマ	-7155
toc	-7156
▁山崎	-7157
▁文庫	-7158
▁書院	-7159
▁最終	-7160
▁畠山	-7161
▁自体	-7162
▁著名	-7163
▁por	-7164
▁desp	-7165
▁kinki	-7166
▁stock	-7167
▁穴	-7168
▁餅	-7169
▁使者	-7170
▁結び	-7171
kami	-7172
boshi	-7173
▁decre	-7174
▁sites	-7175
▁traff	-7176
▁annual	-7177
▁travel	-7178
▁besides	-7179
▁jinshin	-7180
▁religion	-7181
▁successive	-7182
▁surrendered	-7183
▁corresponding	-7184
▁叔	-7185
▁哲	-7186
▁峰	-7187
▁誤	-7188
▁郎	-7189
▁代わ	-7190
▁創設	-7191
▁放送	-7192
▁福島	-7193
▁136	-7194
▁kil	-7195
▁1897	-7196
▁sono	-7197
▁reduc	-7198
▁counter	-7199
▁discont	-7200
▁farmers	-7201
▁opposed	-7202
▁nobility	-7203
.5	-7204
▁才	-7205
▁曾	-7206
kin	-7207
▁南朝	-7208
▁壬申	-7209
▁征夷	-7210
▁拠点	-7211
▁103	-7212
▁143	-7213
gress	-7214
▁miso	-7215
▁もっとも	-7216
▁cause	-7217
▁faith	-7218
▁akechi	-7219
▁suffered	-7220
▁pilgrimage	-7221
▁嫁	-7222
▁露	-7223
▁会議	-7224
▁大神	-7225
▁掛け	-7226
▁この頃	-7227
jokan	-7228
▁ages	-7229
▁bugyo	-7230
▁heard	-7231
▁mixed	-7232
▁roads	-7233
▁experi	-7234
▁scroll	-7235
▁hayashi	-7236
▁executed	-7237
▁measures	-7238
▁takakura	-7239
▁anniversary	-7240
▁惟	-7241
▁樹	-7242
ラー	-7243
▁伝来	-7244
▁様子	-7245
▁衰退	-7246
▁beh	-7247
▁deg	-7248
istic	-7249
▁bron	-7250
▁corn	-7251
▁chugu	-7252
▁edict	-7253
▁defense	-7254
▁audience	-7255
▁prefectures	-7256
▁ゴ	-7257
▁圧	-7258
▁箏	-7259
ディ	-7260
▁写本	-7261
▁原因	-7262
▁国造	-7263
▁明王	-7264
west	-7265
▁rei	-7266
▁代わり	-7267
bound	-7268
▁kizu	-7269
▁aband	-7270
▁owner	-7271
▁altern	-7272
▁shizuoka	-7273
▁sugawara	-7274
▁principle	-7275
▁descriptions	-7276
▁翻	-7277
ams	-7278
ify	-7279
▁59	-7280
▁61	-7281
▁タイ	-7282
▁統治	-7283
bari	-7284
iden	-7285
vest	-7286
▁138	-7287
▁したが	-7288
▁1882	-7289
▁toku	-7290
▁basis	-7291
▁creat	-7292
▁fixed	-7293
▁leave	-7294
▁cities	-7295
▁conver	-7296
▁easily	-7297
▁flavor	-7298
▁source	-7299
▁masamune	-7300
▁slightly	-7301
▁extremely	-7302
bl	-7303
▁乳	-7304
▁大江	-7305
▁明智	-7306
▁紹介	-7307
▁dro	-7308
▁pine	-7309
ishima	-7310
▁decor	-7311
▁final	-7312
▁lives	-7313
▁stones	-7314
▁academy	-7315
▁adviser	-7316
▁stopped	-7317
▁consider	-7318
▁締	-7319
たら	-7320
igi	-7321
▁分離	-7322
▁大宰	-7323
▁楽器	-7324
▁異母	-7325
▁相手	-7326
▁立ち	-7327
▁長者	-7328
▁ang	-7329
igata	-7330
▁2009	-7331
amitsu	-7332
▁coast	-7333
▁goryo	-7334
▁gosho	-7335
▁okimi	-7336
▁prior	-7337
▁seiwa	-7338
▁setsu	-7339
▁kameoka	-7340
▁princes	-7341
▁prefixed	-7342
▁concubine	-7343
▁00	-7344
▁生き	-7345
▁和歌集	-7346
▁attr	-7347
▁gong	-7348
▁hote	-7349
idence	-7350
▁basic	-7351
▁yasut	-7352
▁bronze	-7353
▁contin	-7354
▁horses	-7355
ribution	-7356
▁designed	-7357
▁horikawa	-7358
▁knowledge	-7359
▁promotion	-7360
ざま	-7361
▁44	-7362
▁留学	-7363
▁総合	-7364
▁貞観	-7365
illa	-7366
▁yug	-7367
▁1908	-7368
▁1930	-7369
▁1955	-7370
▁oama	-7371
▁snow	-7372
▁wrap	-7373
▁lands	-7374
▁paste	-7375
▁sendai	-7376
▁biological	-7377
▁給	-7378
▁賢	-7379
かん	-7380
sop	-7381
▁上方	-7382
▁伊豆	-7383
▁工業	-7384
▁復活	-7385
▁皇位	-7386
▁izu	-7387
itaka	-7388
scale	-7389
▁1927	-7390
▁fled	-7391
▁hosp	-7392
▁raku	-7393
▁sett	-7394
▁step	-7395
▁german	-7396
▁suruga	-7397
▁tanaka	-7398
▁largest	-7399
▁spirits	-7400
▁basically	-7401
▁昼	-7402
がり	-7403
ecd	-7404
▁作成	-7405
▁個人	-7406
▁応仁	-7407
▁道具	-7408
▁道長	-7409
▁abd	-7410
▁明らか	-7411
tsugu	-7412
▁cand	-7413
▁didn	-7414
▁evil	-7415
▁liqu	-7416
▁anecd	-7417
▁heart	-7418
▁spear	-7419
▁retire	-7420
▁yamana	-7421
▁instruments	-7422
▁嗣	-7423
▁もん	-7424
▁上人	-7425
▁信玄	-7426
▁受賞	-7427
▁復帰	-7428
▁清和	-7429
▁絵画	-7430
▁補任	-7431
hoto	-7432
oted	-7433
▁1912	-7434
▁diet	-7435
▁chiku	-7436
▁sects	-7437
amation	-7438
▁kabane	-7439
▁months	-7440
▁shosho	-7441
▁mythology	-7442
▁ユ	-7443
▁54	-7444
▁tv	-7445
▁なし	-7446
▁トン	-7447
▁南部	-7448
▁本拠	-7449
▁機能	-7450
▁菩提	-7451
▁駿河	-7452
▁uda	-7453
▁1925	-7454
▁1944	-7455
▁bird	-7456
▁weap	-7457
▁brief	-7458
▁chosen	-7459
▁actively	-7460
▁桓	-7461
▁髪	-7462
tom	-7463
▁一説	-7464
▁前田	-7465
▁kib	-7466
agaki	-7467
ioned	-7468
▁1888	-7469
▁fudo	-7470
▁azuma	-7471
▁moton	-7472
▁pseud	-7473
▁collap	-7474
▁please	-7475
▁musical	-7476
▁hospital	-7477
▁practiced	-7478
▁submitted	-7479
ネル	-7480
▁菅原	-7481
ento	-7482
▁alt	-7483
antly	-7484
▁1582	-7485
▁1947	-7486
▁1976	-7487
▁1991	-7488
▁boat	-7489
▁plum	-7490
▁weak	-7491
▁const	-7492
▁okura	-7493
▁philo	-7494
▁weight	-7495
▁edition	-7496
▁misasagi	-7497
▁召	-7498
▁寒	-7499
▁星	-7500
▁瑞	-7501
▁たら	-7502
▁山名	-7503
▁所有	-7504
▁比べ	-7505
▁空海	-7506
▁結成	-7507
▁関わ	-7508
▁672	-7509
▁1951	-7510
▁goes	-7511
▁worshi	-7512
▁numbers	-7513
▁ranking	-7514
▁stipend	-7515
▁traffic	-7516
▁instruct	-7517
▁philosop	-7518
▁pseudonym	-7519
▁relatively	-7520
▁否	-7521
▁斯	-7522
▁灯	-7523
▁譜	-7524
▁鐘	-7525
kon	-7526
rel	-7527
▁佐々	-7528
▁医学	-7529
▁田中	-7530
jing	-7531
chiku	-7532
ortun	-7533
▁onmyo	-7534
▁rough	-7535
▁ukone	-7536
▁taishogun	-7537
▁protection	-7538
▁ピ	-7539
▁添	-7540
▁避	-7541
▁還	-7542
▁ze	-7543
▁主人	-7544
▁亀岡	-7545
▁書道	-7546
▁永正	-7547
▁総称	-7548
▁追討	-7549
▁長野	-7550
iten	-7551
▁ats	-7552
▁sot	-7553
gashi	-7554
okoji	-7555
ukiyo	-7556
▁1600	-7557
▁virt	-7558
▁failed	-7559
▁nagano	-7560
▁rokujo	-7561
▁obtained	-7562
▁released	-7563
▁teaching	-7564
▁increasing	-7565
▁圏	-7566
▁封	-7567
▁童	-7568
ded	-7569
▁万葉	-7570
▁単に	-7571
▁老中	-7572
▁自害	-7573
▁討伐	-7574
▁近藤	-7575
▁騒動	-7576
ギリス	-7577
year	-7578
▁亡くな	-7579
iance	-7580
itsune	-7581
▁walls	-7582
▁shimot	-7583
▁wearing	-7584
▁maintain	-7585
▁遂	-7586
▁まだ	-7587
▁ダイ	-7588
▁byo	-7589
agami	-7590
▁1891	-7591
▁1960	-7592
▁match	-7593
▁matter	-7594
▁repeated	-7595
▁establish	-7596
▁prohibited	-7597
▁冊	-7598
入り	-7599
▁海外	-7600
▁祭り	-7601
▁配置	-7602
ukan	-7603
guchi	-7604
iling	-7605
▁1887	-7606
▁1985	-7607
▁atsu	-7608
▁イギリス	-7609
▁bizen	-7610
▁check	-7611
▁tsuna	-7612
▁views	-7613
▁colors	-7614
▁domest	-7615
▁refused	-7616
▁shinran	-7617
▁kamigata	-7618
▁contributed	-7619
cm	-7620
▁糸	-7621
▁胡	-7622
▁衛	-7623
ーズ	-7624
iet	-7625
▁シテ	-7626
▁交差	-7627
▁古今	-7628
▁復興	-7629
▁新羅	-7630
▁方向	-7631
▁追放	-7632
▁laws	-7633
▁paid	-7634
▁maeda	-7635
▁ogura	-7636
▁tosho	-7637
▁empire	-7638
▁mizuno	-7639
▁enlight	-7640
▁features	-7641
▁merchants	-7642
▁grandchild	-7643
▁identified	-7644
▁performing	-7645
▁乙	-7646
▁惣	-7647
▁駐	-7648
yak	-7649
▁出羽	-7650
▁動き	-7651
▁呼び	-7652
▁文献	-7653
▁dece	-7654
▁fare	-7655
▁roju	-7656
zaburo	-7657
▁kuroda	-7658
▁unlike	-7659
standing	-7660
▁commercial	-7661
▁temporarily	-7662
ni	-7663
▁序	-7664
▁弱	-7665
▁預	-7666
▁五郎	-7667
▁天智	-7668
▁激し	-7669
▁義満	-7670
▁裁判	-7671
▁韓国	-7672
▁hiko	-7673
atsugu	-7674
rected	-7675
▁aichi	-7676
▁ships	-7677
▁burned	-7678
▁folding	-7679
▁disappeared	-7680
▁circumstances	-7681
▁告	-7682
▁排	-7683
▁瓦	-7684
▁督	-7685
▁嘉永	-7686
▁愛知	-7687
▁記事	-7688
▁警察	-7689
▁農民	-7690
▁逃げ	-7691
▁bai	-7692
▁あたり	-7693
▁ちなみ	-7694
isher	-7695
▁cert	-7696
▁crop	-7697
▁bushi	-7698
▁labor	-7699
▁sagami	-7700
▁styles	-7701
▁merchant	-7702
▁murakami	-7703
▁determined	-7704
▁introduction	-7705
▁ぼ	-7706
▁困	-7707
▁屏	-7708
▁恒	-7709
▁漫	-7710
荼羅	-7711
▁aw	-7712
▁あげ	-7713
▁華族	-7714
akin	-7715
▁dry	-7716
▁kyu	-7717
▁曼荼羅	-7718
dered	-7719
▁1920	-7720
▁anti	-7721
hisatt	-7722
▁acted	-7723
▁minor	-7724
▁landsc	-7725
▁disease	-7726
▁freight	-7727
▁secular	-7728
▁entering	-7729
▁ヲ	-7730
▁伽	-7731
▁芳	-7732
▁録	-7733
▁増え	-7734
▁設定	-7735
▁jor	-7736
▁maki	-7737
▁soul	-7738
ensive	-7739
▁graduate	-7740
▁increase	-7741
▁輝	-7742
mod	-7743
▁改名	-7744
▁発達	-7745
mono	-7746
▁kos	-7747
▁1900	-7748
▁slee	-7749
▁trip	-7750
▁uses	-7751
▁asano	-7752
▁forms	-7753
▁girls	-7754
▁shonin	-7755
▁regulations	-7756
▁宋	-7757
▁せい	-7758
▁ヨー	-7759
▁自治	-7760
cast	-7761
umoto	-7762
▁1942	-7763
▁1948	-7764
▁oshu	-7765
▁suit	-7766
▁inari	-7767
▁prize	-7768
▁shoin	-7769
▁shiget	-7770
momoyama	-7771
▁clothing	-7772
▁scholars	-7773
▁sections	-7774
▁ヘ	-7775
▁祐	-7776
▁役所	-7777
▁東寺	-7778
▁桓武	-7779
▁用語	-7780
akes	-7781
taka	-7782
▁hay	-7783
omaru	-7784
▁1886	-7785
▁1896	-7786
▁1981	-7787
▁bord	-7788
▁devo	-7789
▁jito	-7790
▁prim	-7791
▁togu	-7792
▁oishi	-7793
▁procl	-7794
▁shoku	-7795
▁confir	-7796
▁grounds	-7797
▁bodhisatt	-7798
▁descended	-7799
▁働	-7800
▁是	-7801
▁遅	-7802
tei	-7803
▁よし	-7804
▁展開	-7805
▁正三	-7806
▁福井	-7807
▁院政	-7808
aces	-7809
asen	-7810
araki	-7811
▁1904	-7812
▁plain	-7813
▁strict	-7814
▁evening	-7815
▁shamisen	-7816
▁堅	-7817
わら	-7818
apa	-7819
com	-7820
▁みや	-7821
▁直後	-7822
▁茶屋	-7823
▁説明	-7824
▁600	-7825
▁mie	-7826
▁wis	-7827
quent	-7828
▁1972	-7829
▁1986	-7830
▁curry	-7831
▁fukui	-7832
▁split	-7833
▁stores	-7834
▁okinawa	-7835
▁precincts	-7836
▁technology	-7837
▁translation	-7838
▁文章	-7839
isai	-7840
rial	-7841
▁kud	-7842
▁わずか	-7843
▁1878	-7844
▁kato	-7845
▁sanj	-7846
▁dream	-7847
▁ichin	-7848
▁range	-7849
▁thank	-7850
▁chance	-7851
▁stated	-7852
▁mandala	-7853
▁achieved	-7854
▁握	-7855
▁洗	-7856
▁畿	-7857
aze	-7858
▁屏風	-7859
▁運営	-7860
acho	-7861
aster	-7862
▁1180	-7863
▁elev	-7864
▁excl	-7865
▁tend	-7866
▁kazan	-7867
▁steam	-7868
fection	-7869
▁million	-7870
▁happened	-7871
▁閏	-7872
gon	-7873
▁ふじ	-7874
▁商人	-7875
▁大宝	-7876
▁大戦	-7877
▁流通	-7878
▁組み	-7879
▁装束	-7880
▁重文	-7881
▁net	-7882
▁plot	-7883
▁akita	-7884
▁heads	-7885
▁hours	-7886
▁shaka	-7887
ression	-7888
▁kitano	-7889
▁gokenin	-7890
▁strongly	-7891
▁attention	-7892
▁engineering	-7893
▁垂	-7894
▁席	-7895
▁住職	-7896
▁切腹	-7897
▁到着	-7898
▁宝暦	-7899
▁専攻	-7900
▁展示	-7901
▁造り	-7902
▁面積	-7903
kado	-7904
poin	-7905
type	-7906
▁pul	-7907
▁とおり	-7908
ricts	-7909
▁1905	-7910
▁1979	-7911
▁arms	-7912
▁ment	-7913
▁dress	-7914
▁tohoku	-7915
▁concern	-7916
▁controlled	-7917
▁&	-7918
▁援	-7919
▁52	-7920
▁亀山	-7921
▁側室	-7922
▁奥州	-7923
▁妖怪	-7924
▁山陰	-7925
▁本殿	-7926
▁正五	-7927
▁独特	-7928
▁産業	-7929
▁箇所	-7930
▁親し	-7931
▁eel	-7932
▁buck	-7933
▁subd	-7934
isions	-7935
▁ritsu	-7936
utenant	-7937
vention	-7938
▁districts	-7939
▁restaurant	-7940
▁educational	-7941
▁posthumously	-7942
▁浴	-7943
▁磐	-7944
▁那	-7945
fuk	-7946
▁95	-7947
▁朝臣	-7948
▁相撲	-7949
▁維持	-7950
▁辞職	-7951
temp	-7952
▁bic	-7953
antage	-7954
▁equal	-7955
▁kanmu	-7956
▁golden	-7957
▁organiz	-7958
▁expression	-7959
▁努	-7960
▁擁	-7961
▁銃	-7962
ルト	-7963
een	-7964
▁中山	-7965
▁元々	-7966
▁行為	-7967
▁長官	-7968
▁黒田	-7969
asan	-7970
▁ped	-7971
▁break	-7972
▁ikeda	-7973
▁kishi	-7974
▁tunnel	-7975
▁shogunal	-7976
▁announced	-7977
▁influential	-7978
--	-7979
▁慣	-7980
▁抗	-7981
▁桑	-7982
▁縄	-7983
ナギ	-7984
▁jn	-7985
▁のり	-7986
▁修理	-7987
▁宗派	-7988
▁氏族	-7989
▁浅野	-7990
▁emb	-7991
▁1879	-7992
▁moku	-7993
▁さまざま	-7994
▁liber	-7995
▁roles	-7996
▁commem	-7997
▁katsur	-7998
▁alcohol	-7999
▁probably	-8000
▁expressway	-8001
▁supporting	-8002
▁汁	-8003
gar	-8004
▁三郎	-8005
▁周囲	-8006
▁執権	-8007
▁寿司	-8008
▁歴任	-8009
▁義仲	-8010
date	-8011
agaku	-8012
erior	-8013
itada	-8014
▁1923	-8015
▁frag	-8016
▁myoo	-8017
▁path	-8018
▁hosho	-8019
▁joint	-8020
▁manner	-8021
▁miyake	-8022
▁produce	-8023
▁strateg	-8024
▁attended	-8025
▁lieutenant	-8026
▁translated	-8027
▁偽	-8028
▁趣	-8029
でに	-8030
ンチ	-8031
▁ファ	-8032
▁命令	-8033
▁大海	-8034
▁女王	-8035
▁神楽	-8036
▁ako	-8037
▁jnr	-8038
▁1865	-8039
▁1901	-8040
▁haku	-8041
▁kang	-8042
▁whom	-8043
atsuki	-8044
▁giving	-8045
▁disturb	-8046
▁conditions	-8047
▁interchange	-8048
▁袖	-8049
▁56	-8050
▁効果	-8051
▁授け	-8052
▁特定	-8053
▁譲位	-8054
yard	-8055
▁jur	-8056
▁lan	-8057
tsuna	-8058
▁earl	-8059
▁tofu	-8060
▁インター	-8061
▁doctrin	-8062
▁towards	-8063
▁nickname	-8064
▁sakamoto	-8065
▁shooting	-8066
▁yamamoto	-8067
▁daughters	-8068
▁graduated	-8069
▁celebrated	-8070
▁reorganized	-8071
▁responsible	-8072
▁謙	-8073
▁陥	-8074
瑠璃	-8075
awn	-8076
▁利休	-8077
▁北家	-8078
▁味噌	-8079
▁御陵	-8080
▁既に	-8081
▁権守	-8082
▁称号	-8083
▁讃岐	-8084
▁すでに	-8085
atsuri	-8086
▁exped	-8087
▁fifty	-8088
▁pursu	-8089
▁tanka	-8090
▁defined	-8091
▁fishing	-8092
▁appointment	-8093
▁忌	-8094
eds	-8095
▁事情	-8096
▁経歴	-8097
ロッパ	-8098
anoue	-8099
▁1992	-8100
▁seii	-8101
orized	-8102
▁goods	-8103
▁faction	-8104
▁operating	-8105
▁discovered	-8106
▁industrial	-8107
▁恩	-8108
▁柏	-8109
▁酸	-8110
▁あと	-8111
▁官軍	-8112
▁小笠	-8113
▁東宮	-8114
▁株式	-8115
▁養女	-8116
▁高速	-8117
hata	-8118
▁145	-8119
rical	-8120
sions	-8121
▁hiji	-8122
atsume	-8123
▁jingu	-8124
▁quick	-8125
▁acting	-8126
▁points	-8127
▁expressed	-8128
▁possessed	-8129
▁agriculture	-8130
▁催	-8131
▁炭	-8132
▁篠	-8133
▁閑	-8134
con	-8135
ler	-8136
▁小倉	-8137
▁石山	-8138
▁食品	-8139
▁tur	-8140
▁皇太后	-8141
▁1894	-8142
▁fier	-8143
▁fresh	-8144
▁kunin	-8145
▁merit	-8146
▁shino	-8147
▁ヨーロッパ	-8148
▁aspect	-8149
▁encour	-8150
▁taisha	-8151
▁rituals	-8152
▁consisted	-8153
▁discontinu	-8154
▁shimotsuke	-8155
▁淳	-8156
▁薫	-8157
▁大字	-8158
▁天満	-8159
▁浅井	-8160
▁美し	-8161
▁聖徳	-8162
▁過ぎ	-8163
otes	-8164
▁oil	-8165
▁uts	-8166
▁chur	-8167
▁flat	-8168
ashiki	-8169
▁honen	-8170
▁price	-8171
▁asakura	-8172
▁permitted	-8173
▁integrated	-8174
▁契	-8175
▁毘	-8176
替え	-8177
▁一定	-8178
▁三浦	-8179
▁乗車	-8180
▁基礎	-8181
▁工芸	-8182
▁広ま	-8183
▁提出	-8184
▁秋田	-8185
▁親鸞	-8186
▁鳥取	-8187
omoto	-8188
press	-8189
tanabe	-8190
▁chair	-8191
▁heavy	-8192
▁counsel	-8193
▁contained	-8194
▁jugoinojo	-8195
▁楠	-8196
▁滞	-8197
▁碑	-8198
aek	-8199
▁47	-8200
▁北部	-8201
▁古典	-8202
▁女御	-8203
▁小田	-8204
▁斎藤	-8205
▁日付	-8206
▁系譜	-8207
▁芸能	-8208
▁140	-8209
▁env	-8210
▁mae	-8211
▁小笠原	-8212
itive	-8213
▁gaku	-8214
▁leaf	-8215
▁poor	-8216
▁ruins	-8217
▁demand	-8218
▁overse	-8219
▁address	-8220
▁portion	-8221
▁tottori	-8222
▁maintained	-8223
▁詔	-8224
▁踊	-8225
切り	-8226
▁めぐ	-8227
▁下野	-8228
▁価値	-8229
▁四男	-8230
▁家系	-8231
▁山本	-8232
tocr	-8233
▁もたら	-8234
ataka	-8235
▁1880	-8236
▁kuge	-8237
▁もともと	-8238
▁kanrei	-8239
▁pitapa	-8240
▁proced	-8241
▁sasaki	-8242
▁sessho	-8243
▁ishiyama	-8244
ph	-8245
▁了	-8246
▁昔	-8247
▁柔	-8248
っき	-8249
▁六条	-8250
▁寿永	-8251
▁摂関	-8252
idai	-8253
▁ロシア	-8254
omasa	-8255
▁1919	-8256
▁epis	-8257
▁comic	-8258
▁nishin	-8259
▁costume	-8260
▁messeng	-8261
▁someone	-8262
▁aristocr	-8263
▁decision	-8264
▁momoyama	-8265
▁opinions	-8266
▁伸	-8267
▁准	-8268
▁縦	-8269
▁仏像	-8270
▁勤め	-8271
▁幼少	-8272
▁朝倉	-8273
▁畿内	-8274
▁謀反	-8275
▁重ね	-8276
▁nun	-8277
ening	-8278
▁cous	-8279
▁avoid	-8280
▁forth	-8281
▁hoshi	-8282
▁yaman	-8283
▁deeply	-8284
▁arranged	-8285
▁directed	-8286
▁dismissed	-8287
▁reference	-8288
▁consisting	-8289
▁accordingly	-8290
▁益	-8291
▁貢	-8292
▁人口	-8293
▁失敗	-8294
▁本格	-8295
▁金堂	-8296
▁集落	-8297
ners	-8298
▁lic	-8299
▁ris	-8300
etaka	-8301
▁1932	-8302
▁asce	-8303
▁grew	-8304
▁ryuk	-8305
▁enfor	-8306
▁escape	-8307
▁string	-8308
▁earlier	-8309
▁painter	-8310
▁situated	-8311
▁connection	-8312
▁recommended	-8313
▁訓	-8314
▁軌	-8315
▁てん	-8316
▁外交	-8317
▁存続	-8318
▁延長	-8319
▁決め	-8320
▁消滅	-8321
▁1940	-8322
▁eart	-8323
▁kumi	-8324
▁mist	-8325
▁metal	-8326
▁reach	-8327
▁action	-8328
▁enough	-8329
▁shogoino	-8330
▁returning	-8331
lt	-8332
▁架	-8333
▁算	-8334
しろ	-8335
▁ジャ	-8336
▁僧正	-8337
▁創立	-8338
▁家庭	-8339
▁建久	-8340
▁狩野	-8341
▁難波	-8342
usha	-8343
▁tas	-8344
▁コース	-8345
▁rich	-8346
▁journ	-8347
▁rites	-8348
▁width	-8349
▁masako	-8350
▁nippon	-8351
▁studio	-8352
▁earthen	-8353
▁receive	-8354
▁popularity	-8355
▁bodhisattva	-8356
▁其	-8357
▁徴	-8358
▁怒	-8359
▁掌	-8360
▁網	-8361
▁革	-8362
▁但し	-8363
▁備え	-8364
▁北野	-8365
▁弘仁	-8366
▁支え	-8367
▁沖縄	-8368
▁花山	-8369
▁調理	-8370
▁pup	-8371
▁spr	-8372
▁河原町	-8373
ining	-8374
urity	-8375
▁cuis	-8376
emitsu	-8377
▁adult	-8378
▁restr	-8379
▁sanin	-8380
asawara	-8381
▁barbari	-8382
▁campaig	-8383
▁centime	-8384
▁colored	-8385
▁decline	-8386
▁formerly	-8387
▁interior	-8388
▁peasants	-8389
▁territorial	-8390
▁於	-8391
▁緑	-8392
▁葺	-8393
▁酵	-8394
カー	-8395
▁仙台	-8396
▁全く	-8397
▁委員	-8398
▁起き	-8399
▁門下	-8400
wide	-8401
aiden	-8402
usuke	-8403
▁jiju	-8404
▁onin	-8405
▁codes	-8406
▁gates	-8407
▁kaoru	-8408
▁daitoku	-8409
▁domestic	-8410
▁replaced	-8411
.8	-8412
▁婚	-8413
▁税	-8414
▁額	-8415
し出	-8416
gai	-8417
▁侵攻	-8418
▁入道	-8419
▁天明	-8420
▁家紋	-8421
▁従四	-8422
▁改元	-8423
▁水野	-8424
▁病院	-8425
▁発掘	-8426
▁相模	-8427
▁inn	-8428
anari	-8429
▁kana	-8430
▁flute	-8431
▁takat	-8432
maizuru	-8433
▁powers	-8434
▁alliance	-8435
▁crossing	-8436
▁excavated	-8437
▁permission	-8438
▁population	-8439
▁欧	-8440
んな	-8441
kok	-8442
ucr	-8443
▁ei	-8444
▁すれ	-8445
▁スタ	-8446
▁両者	-8447
▁死亡	-8448
んじゃ	-8449
phew	-8450
▁sha	-8451
▁vow	-8452
anabe	-8453
bushi	-8454
▁1906	-8455
▁sojo	-8456
▁appre	-8457
▁figures	-8458
▁gathered	-8459
▁kameyama	-8460
▁manyoshu	-8461
▁nakamaro	-8462
▁receiving	-8463
▁characteristic	-8464
▁渋	-8465
▁甥	-8466
▁稚	-8467
▁茨	-8468
詰め	-8469
▁上演	-8470
▁兼ね	-8471
▁和服	-8472
▁大徳	-8473
▁建武	-8474
▁逸話	-8475
▁lif	-8476
azono	-8477
icial	-8478
osite	-8479
▁sepp	-8480
▁hondo	-8481
▁honno	-8482
▁nephew	-8483
▁rights	-8484
▁dancing	-8485
▁efforts	-8486
▁serious	-8487
▁午	-8488
▁署	-8489
▁速	-8490
▁49	-8491
▁サン	-8492
▁坂本	-8493
▁征伐	-8494
▁戦闘	-8495
▁斯波	-8496
▁英語	-8497
▁要求	-8498
amon	-8499
▁job	-8500
▁suo	-8501
▁1941	-8502
ushige	-8503
utions	-8504
▁daily	-8505
▁yamat	-8506
▁emphas	-8507
▁kataoka	-8508
▁nishiki	-8509
▁genealogy	-8510
▁tadayoshi	-8511
▁disturbance	-8512
▁券	-8513
our	-8514
▁叔父	-8515
▁国衙	-8516
▁巻き	-8517
▁思い	-8518
▁技法	-8519
▁民間	-8520
▁浪士	-8521
▁祭祀	-8522
▁豆腐	-8523
▁集団	-8524
tore	-8525
▁タンゴ	-8526
▁edge	-8527
▁soto	-8528
▁explan	-8529
▁images	-8530
▁ascetic	-8531
▁reinfor	-8532
▁settled	-8533
▁abandoned	-8534
▁しゅ	-8535
▁予定	-8536
▁和田	-8537
▁後述	-8538
▁書き	-8539
▁未詳	-8540
▁注意	-8541
▁解説	-8542
imei	-8543
taro	-8544
▁bal	-8545
▁jog	-8546
emoto	-8547
erous	-8548
▁1915	-8549
▁asia	-8550
▁kake	-8551
▁oaza	-8552
▁ochi	-8553
▁のみこと	-8554
▁キリスト	-8555
▁shite	-8556
▁player	-8557
▁advance	-8558
▁cuisine	-8559
▁ascended	-8560
ew	-8561
isu	-8562
▁仁和	-8563
▁作業	-8564
▁叙爵	-8565
▁女房	-8566
▁田辺	-8567
waka	-8568
▁fud	-8569
mangu	-8570
▁dojo	-8571
▁door	-8572
▁kokin	-8573
▁nikko	-8574
▁devoted	-8575
▁herself	-8576
▁supreme	-8577
▁economic	-8578
▁institution	-8579
▁discontinued	-8580
▁審	-8581
▁怪	-8582
▁携	-8583
▁虎	-8584
▁醸	-8585
▁おか	-8586
▁たま	-8587
▁とり	-8588
▁フィ	-8589
▁好み	-8590
▁宝永	-8591
▁承久	-8592
▁臨済	-8593
ランド	-8594
shun	-8595
teru	-8596
▁boy	-8597
▁ota	-8598
▁sin	-8599
クション	-8600
ators	-8601
heast	-8602
imori	-8603
unoki	-8604
▁ways	-8605
▁yeast	-8606
▁fierce	-8607
▁shishi	-8608
▁contemp	-8609
▁nagaoka	-8610
▁explained	-8611
▁悲	-8612
▁戊	-8613
▁敏	-8614
▁滝	-8615
▁頂	-8616
バー	-8617
aps	-8618
lve	-8619
▁しも	-8620
▁出仕	-8621
▁植物	-8622
▁無形	-8623
▁重臣	-8624
ains	-8625
fted	-8626
lies	-8627
usei	-8628
▁gom	-8629
▁ホテル	-8630
wheat	-8631
▁1902	-8632
▁sado	-8633
▁monjo	-8634
▁akashi	-8635
▁hakase	-8636
▁joruri	-8637
▁prayer	-8638
▁yellow	-8639
▁methods	-8640
▁approved	-8641
▁bureaucr	-8642
▁campaign	-8643
▁intention	-8644
▁residential	-8645
▁confucianism	-8646
ky	-8647
▁拾	-8648
▁李	-8649
▁誓	-8650
イツ	-8651
iwa	-8652
oun	-8653
ras	-8654
▁側近	-8655
▁入学	-8656
▁本能	-8657
▁松尾	-8658
▁混乱	-8659
▁系図	-8660
▁義昭	-8661
▁許可	-8662
▁貨物	-8663
▁開拓	-8664
oses	-8665
▁1913	-8666
▁1954	-8667
▁1977	-8668
▁tools	-8669
▁kozuke	-8670
▁sukune	-8671
▁nagamasa	-8672
▁buckwheat	-8673
▁yoshinori	-8674
▁expedition	-8675
▁削	-8676
▁策	-8677
ーツ	-8678
iar	-8679
igr	-8680
ley	-8681
ody	-8682
▁共通	-8683
▁前述	-8684
▁安定	-8685
▁構え	-8686
▁標高	-8687
olit	-8688
▁bit	-8689
▁fab	-8690
▁nis	-8691
lying	-8692
sauce	-8693
▁1969	-8694
▁carry	-8695
▁loyal	-8696
▁nobuk	-8697
▁reven	-8698
▁scenic	-8699
▁twelve	-8700
▁revised	-8701
▁commenced	-8702
▁enlighten	-8703
▁passenger	-8704
▁accordance	-8705
▁entertainment	-8706
▁classification	-8707
▁塗	-8708
▁洞	-8709
▁衝	-8710
▁載	-8711
▁釜	-8712
car	-8713
col	-8714
▁コー	-8715
▁一覧	-8716
▁勝利	-8717
▁原則	-8718
▁同盟	-8719
▁所属	-8720
▁支持	-8721
▁正面	-8722
▁縁起	-8723
▁解釈	-8724
▁鳥居	-8725
iron	-8726
▁oki	-8727
▁1892	-8728
▁mibu	-8729
vement	-8730
▁stops	-8731
▁exclus	-8732
▁thanks	-8733
▁wealth	-8734
▁drawing	-8735
▁iemitsu	-8736
▁measure	-8737
▁nothing	-8738
sy	-8739
▁刃	-8740
▁漆	-8741
▁距	-8742
▁oy	-8743
▁いっ	-8744
▁もち	-8745
▁下京	-8746
▁太郎	-8747
▁役職	-8748
▁新潟	-8749
▁表面	-8750
▁長谷	-8751
▁dra	-8752
▁inj	-8753
onobe	-8754
▁1963	-8755
▁ueno	-8756
daijin	-8757
▁basin	-8758
▁hogen	-8759
▁sanyo	-8760
▁resist	-8761
▁seemed	-8762
▁contrast	-8763
▁distinct	-8764
▁finished	-8765
▁newspaper	-8766
▁ogasawara	-8767
▁treatment	-8768
▁achievement	-8769
.3	-8770
▁スル	-8771
▁世襲	-8772
▁主流	-8773
▁古来	-8774
▁正親	-8775
▁西京	-8776
▁mok	-8777
▁sor	-8778
▁おこな	-8779
▁まとめ	-8780
▁1909	-8781
▁viol	-8782
itsubo	-8783
▁india	-8784
▁kinai	-8785
▁naval	-8786
▁tochi	-8787
▁rinzai	-8788
▁hidetada	-8789
▁counselor	-8790
▁yoshihiro	-8791
▁surrounded	-8792
bn	-8793
▁則	-8794
▁幾	-8795
abu	-8796
▁51	-8797
▁俳優	-8798
▁備前	-8799
▁出陣	-8800
▁壬生	-8801
▁大河	-8802
▁子爵	-8803
▁宿禰	-8804
▁物部	-8805
▁知行	-8806
▁行幸	-8807
▁襲名	-8808
▁距離	-8809
host	-8810
▁bab	-8811
▁foc	-8812
▁obi	-8813
▁カレー	-8814
▁仲麻呂	-8815
ifuku	-8816
▁1984	-8817
atoshi	-8818
▁eizan	-8819
▁exten	-8820
▁taifu	-8821
brother	-8822
▁honzon	-8823
▁ferment	-8824
▁murasaki	-8825
▁temperature	-8826
▁州	-8827
▁いち	-8828
▁まさ	-8829
▁勧修	-8830
▁坂上	-8831
▁寄進	-8832
▁支援	-8833
▁民俗	-8834
▁生母	-8835
▁目指	-8836
▁知事	-8837
▁統合	-8838
▁著作	-8839
zuki	-8840
▁our	-8841
▁syn	-8842
▁yaw	-8843
▁浄瑠璃	-8844
▁1185	-8845
▁1966	-8846
asions	-8847
▁kishu	-8848
▁tenth	-8849
▁tozai	-8850
ability	-8851
ocation	-8852
▁compar	-8853
▁declar	-8854
▁severe	-8855
▁justice	-8856
▁niigata	-8857
▁founding	-8858
▁hakodate	-8859
▁opposite	-8860
▁sakanoue	-8861
▁uprising	-8862
▁matsumoto	-8863
▁”	-8864
▁煎	-8865
▁筋	-8866
▁胤	-8867
▁航	-8868
捨て	-8869
jug	-8870
▁1,	-8871
▁こそ	-8872
▁横浜	-8873
▁法然	-8874
▁鉄砲	-8875
okyo	-8876
▁bay	-8877
ansho	-8878
▁find	-8879
▁isbn	-8880
ichika	-8881
▁dutch	-8882
▁ukiyo	-8883
▁fabric	-8884
▁intang	-8885
▁survey	-8886
▁appreci	-8887
▁despite	-8888
▁donated	-8889
▁players	-8890
▁deceased	-8891
▁shimogyo	-8892
▁mitsunari	-8893
▁conference	-8894
▁retirement	-8895
▁enlightenment	-8896
▁<	-8897
▁責	-8898
▁麻	-8899
alu	-8900
▁京福	-8901
▁占め	-8902
▁堀川	-8903
▁大量	-8904
▁材料	-8905
▁病死	-8906
▁秀忠	-8907
▁装飾	-8908
▁領地	-8909
▁sue	-8910
▁ドイツ	-8911
count	-8912
▁1952	-8913
▁1959	-8914
▁fief	-8915
▁laun	-8916
▁tall	-8917
▁tele	-8918
▁plate	-8919
▁squad	-8920
▁internal	-8921
▁yokohama	-8922
▁intangible	-8923
▁墳	-8924
▁筒	-8925
▁辺	-8926
▁鍋	-8927
ogi	-8928
yoi	-8929
▁処分	-8930
▁前身	-8931
▁安倍	-8932
▁尽力	-8933
▁漢字	-8934
▁納め	-8935
▁結局	-8936
▁象徴	-8937
▁貨幣	-8938
aigh	-8939
raph	-8940
▁hun	-8941
▁sas	-8942
anaga	-8943
ayori	-8944
▁duty	-8945
▁tats	-8946
▁cards	-8947
▁utens	-8948
▁envoys	-8949
▁superv	-8950
▁separate	-8951
▁displayed	-8952
▁calligraphic	-8953
▁辛	-8954
クラ	-8955
▁pu	-8956
▁せん	-8957
▁プラ	-8958
▁叡山	-8959
▁本姓	-8960
▁竹田	-8961
▁紙本	-8962
▁総督	-8963
▁著書	-8964
▁連歌	-8965
iary	-8966
izes	-8967
▁嵯峨野	-8968
▁捕らえ	-8969
place	-8970
rents	-8971
▁1903	-8972
▁1914	-8973
▁dark	-8974
▁sick	-8975
achika	-8976
▁ghost	-8977
▁hotel	-8978
▁kosho	-8979
▁miura	-8980
▁takam	-8981
▁takas	-8982
▁allied	-8983
▁tanabe	-8984
▁incense	-8985
▁straigh	-8986
▁blossoms	-8987
▁commerce	-8988
▁rokuhara	-8989
▁studying	-8990
▁commentary	-8991
▁arrangement	-8992
dy	-8993
▁ザ	-8994
▁吸	-8995
▁篤	-8996
ブル	-8997
▁かみ	-8998
▁どの	-8999
▁上下	-9000
▁下向	-9001
▁争い	-9002
▁酒造	-9003
back	-9004
fish	-9005
▁佐々木	-9006
bugyo	-9007
grand	-9008
imono	-9009
▁1922	-9010
▁1968	-9011
▁tate	-9012
▁week	-9013
▁adjac	-9014
▁engra	-9015
▁wrest	-9016
▁youth	-9017
▁enjoyed	-9018
▁lacquer	-9019
▁depicted	-9020
▁employed	-9021
▁attempted	-9022
▁michizane	-9023
▁nagayoshi	-9024
▁incidentally	-9025
▁アク	-9026
▁会員	-9027
▁従来	-9028
▁揚げ	-9029
▁武器	-9030
▁禅宗	-9031
▁絵巻	-9032
uter	-9033
writ	-9034
inari	-9035
mochi	-9036
▁1183	-9037
▁1965	-9038
▁1971	-9039
▁taro	-9040
▁butsu	-9041
▁kutsu	-9042
▁purch	-9043
▁tatsu	-9044
▁hakata	-9045
▁archery	-9046
▁parties	-9047
▁drinking	-9048
▁strength	-9049
▁distributed	-9050
▁借	-9051
▁笛	-9052
▁辻	-9053
▁いん	-9054
▁信頼	-9055
▁処刑	-9056
▁原料	-9057
▁変え	-9058
▁嫡子	-9059
▁宮城	-9060
▁家元	-9061
▁東国	-9062
▁片岡	-9063
▁環境	-9064
▁神事	-9065
▁buk	-9066
▁例えば	-9067
▁exit	-9068
▁maga	-9069
▁取り入れ	-9070
▁chick	-9071
▁shojo	-9072
▁silla	-9073
▁assemb	-9074
▁conven	-9075
▁content	-9076
▁islands	-9077
▁resulted	-9078
▁relations	-9079
▁centimeters	-9080
wo	-9081
▁栗	-9082
▁沙	-9083
▁腰	-9084
▁駆	-9085
リン	-9086
▁やや	-9087
▁ヶ月	-9088
▁一切	-9089
▁丁目	-9090
▁写真	-9091
▁大輔	-9092
▁夫人	-9093
▁安芸	-9094
▁町名	-9095
▁百姓	-9096
▁積極	-9097
▁設計	-9098
▁試験	-9099
▁進出	-9100
▁雅楽	-9101
utai	-9102
iseki	-9103
jitsu	-9104
▁1921	-9105
▁1956	-9106
▁hisa	-9107
▁tane	-9108
▁trib	-9109
▁じんじゃ	-9110
▁estim	-9111
▁nitta	-9112
▁tenchi	-9113
▁wanted	-9114
▁exchang	-9115
▁viscount	-9116
▁hashimoto	-9117
▁亭	-9118
▁威	-9119
▁撃	-9120
▁萬	-9121
▁遭	-9122
波羅	-9123
▁下り	-9124
▁否定	-9125
▁実子	-9126
▁新設	-9127
▁法師	-9128
▁演目	-9129
▁紀州	-9130
▁軍勢	-9131
▁農業	-9132
▁阿波	-9133
jiri	-9134
▁fro	-9135
▁ike	-9136
▁rat	-9137
tered	-9138
▁cord	-9139
▁hill	-9140
▁kubo	-9141
▁onoe	-9142
▁foods	-9143
▁homyo	-9144
▁mouth	-9145
▁decree	-9146
▁reforms	-9147
▁adjacent	-9148
▁governors	-9149
▁landscape	-9150
▁kawaramachi	-9151
▁ヴ	-9152
▁鉱	-9153
hat	-9154
rif	-9155
▁公方	-9156
▁協力	-9157
▁吾妻	-9158
▁推測	-9159
▁明石	-9160
▁避け	-9161
ランダ	-9162
azawa	-9163
▁mizu	-9164
action	-9165
▁inaug	-9166
▁kokyu	-9167
▁yasum	-9168
▁cousin	-9169
▁facing	-9170
▁kazusa	-9171
▁shoten	-9172
▁toyama	-9173
▁arrested	-9174
▁overseas	-9175
▁requested	-9176
▁yoshimune	-9177
▁inscription	-9178
▁勃	-9179
▁尋	-9180
bot	-9181
ubi	-9182
▁ちゃ	-9183
▁分家	-9184
▁合流	-9185
▁地元	-9186
▁宇都	-9187
▁直通	-9188
▁経緯	-9189
▁要素	-9190
hole	-9191
town	-9192
▁りょう	-9193
▁六波羅	-9194
engyo	-9195
▁1934	-9196
▁1957	-9197
▁kaku	-9198
▁ogim	-9199
akatsu	-9200
jected	-9201
▁hirom	-9202
▁kochi	-9203
▁magaz	-9204
▁notes	-9205
▁10,000	-9206
▁nomura	-9207
▁sagano	-9208
▁storyte	-9209
▁mononobe	-9210
▁register	-9211
▁visitors	-9212
je	-9213
▁互	-9214
▁氷	-9215
▁澄	-9216
込み	-9217
tee	-9218
▁ずる	-9219
▁乾燥	-9220
▁城下	-9221
▁尾上	-9222
▁条件	-9223
▁段階	-9224
▁滞在	-9225
▁番号	-9226
inobu	-9227
▁1573	-9228
▁1953	-9229
▁1982	-9230
▁brig	-9231
▁kuji	-9232
▁nani	-9233
▁ushi	-9234
iguchi	-9235
▁extra	-9236
▁forty	-9237
▁fried	-9238
▁sakur	-9239
▁shoso	-9240
▁kokuga	-9241
▁muraji	-9242
▁suzuki	-9243
▁unclear	-9244
▁progress	-9245
▁relatives	-9246
▁residents	-9247
ux	-9248
▁≒	-9249
▁籠	-9250
pir	-9251
▁ずつ	-9252
▁太夫	-9253
▁平治	-9254
▁文人	-9255
iryo	-9256
▁ast	-9257
▁fru	-9258
▁oni	-9259
▁pan	-9260
▁lack	-9261
▁yuan	-9262
▁clean	-9263
matsuri	-9264
▁church	-9265
▁remark	-9266
▁manager	-9267
▁masakado	-9268
▁advantage	-9269
▁honorific	-9270
▁barbarians	-9271
▁worshipped	-9272
km	-9273
▁湾	-9274
焼き	-9275
▁久我	-9276
▁博多	-9277
▁大原	-9278
▁発足	-9279
▁移動	-9280
▁赤穂	-9281
▁連絡	-9282
goro	-9283
ires	-9284
juji	-9285
▁cup	-9286
▁mit	-9287
▁phr	-9288
zushi	-9289
▁1933	-9290
▁hase	-9291
▁reve	-9292
houses	-9293
seeing	-9294
▁alone	-9295
▁divine	-9296
▁tenjin	-9297
▁account	-9298
▁springs	-9299
▁problems	-9300
▁exception	-9301
▁philosophy	-9302
▁shogoinoge	-9303
▁differences	-9304
eme	-9305
▁ライ	-9306
▁一番	-9307
▁山内	-9308
▁開通	-9309
▁養老	-9310
▁ばかり	-9311
▁ヤマト	-9312
abata	-9313
▁1924	-9314
▁brit	-9315
emichi	-9316
▁absor	-9317
▁gagaku	-9318
▁shikoku	-9319
▁straight	-9320
▁寵	-9321
▁棒	-9322
▁汲	-9323
hou	-9324
rim	-9325
▁うえ	-9326
▁付き	-9327
▁再度	-9328
▁厳し	-9329
▁四国	-9330
▁報告	-9331
▁家光	-9332
▁将門	-9333
▁小路	-9334
▁政宗	-9335
▁松本	-9336
▁説話	-9337
char	-9338
fall	-9339
▁ice	-9340
astic	-9341
eries	-9342
▁1585	-9343
▁1978	-9344
▁chuo	-9345
▁drink	-9346
▁learn	-9347
▁negoti	-9348
▁plants	-9349
▁getting	-9350
▁precept	-9351
▁sitting	-9352
▁departed	-9353
▁graveyard	-9354
▁compilation	-9355
▁corresponds	-9356
▁underground	-9357
▁梵	-9358
▁盗	-9359
▁舟	-9360
ナル	-9361
tak	-9362
▁地頭	-9363
▁意識	-9364
▁橋本	-9365
▁王子	-9366
▁病気	-9367
▁長政	-9368
point	-9369
▁1893	-9370
▁hana	-9371
▁rise	-9372
▁choja	-9373
▁compr	-9374
▁evalu	-9375
▁seats	-9376
▁stood	-9377
▁france	-9378
▁tsutsu	-9379
▁combined	-9380
▁occupied	-9381
▁afterward	-9382
▁flourished	-9383
▁neighboring	-9384
▁柴	-9385
▁畳	-9386
▁虚	-9387
▁費	-9388
▁雷	-9389
▁顧	-9390
田辺	-9391
▁佐賀	-9392
▁光明	-9393
▁兵部	-9394
▁反乱	-9395
▁神奈	-9396
▁認定	-9397
▁鋳造	-9398
▁1967	-9399
▁dial	-9400
▁easy	-9401
▁gent	-9402
▁haru	-9403
▁unif	-9404
▁asahi	-9405
▁enjoy	-9406
▁looks	-9407
▁vehic	-9408
▁caught	-9409
▁susano	-9410
▁environ	-9411
▁sakurai	-9412
▁tsubone	-9413
▁intended	-9414
▁proposed	-9415
▁visiting	-9416
▁vegetables	-9417
くら	-9418
aie	-9419
cer	-9420
▁ey	-9421
▁一色	-9422
▁三味	-9423
▁創作	-9424
▁専用	-9425
▁弁当	-9426
▁漫画	-9427
▁経典	-9428
▁葬儀	-9429
▁製法	-9430
mori	-9431
▁koy	-9432
▁カード	-9433
adays	-9434
itory	-9435
ukawa	-9436
▁1590	-9437
▁soft	-9438
utation	-9439
▁patron	-9440
▁highway	-9441
▁putting	-9442
▁nowadays	-9443
▁surrender	-9444
▁児	-9445
▁團	-9446
▁悟	-9447
▁想	-9448
▁槍	-9449
シュ	-9450
ige	-9451
▁uz	-9452
▁伽藍	-9453
▁家格	-9454
▁恐れ	-9455
▁戊辰	-9456
▁補佐	-9457
▁道場	-9458
▁sui	-9459
▁宇都宮	-9460
tenno	-9461
▁cler	-9462
▁ikki	-9463
▁slop	-9464
▁wada	-9465
▁ayabe	-9466
▁bungo	-9467
▁domin	-9468
▁ikoma	-9469
▁imina	-9470
▁spent	-9471
▁tetsu	-9472
▁torii	-9473
▁emishi	-9474
▁hakama	-9475
▁display	-9476
▁streets	-9477
▁invasion	-9478
▁抵	-9479
▁蹴	-9480
▁鯨	-9481
パス	-9482
uff	-9483
▁カツ	-9484
▁中華	-9485
▁定員	-9486
▁成長	-9487
▁日光	-9488
▁淀川	-9489
▁生駒	-9490
▁総裁	-9491
▁連れ	-9492
entr	-9493
zaka	-9494
▁pac	-9495
▁ついに	-9496
erted	-9497
▁fisc	-9498
▁foster	-9499
▁kagura	-9500
▁america	-9501
▁reduced	-9502
mentioned	-9503
▁conquest	-9504
▁fundoshi	-9505
▁committee	-9506
▁猶	-9507
チェ	-9508
abo	-9509
▁備中	-9510
▁区分	-9511
▁商品	-9512
▁回復	-9513
▁地上	-9514
▁増加	-9515
▁文治	-9516
▁茶碗	-9517
▁ven	-9518
▁wel	-9519
▁1973	-9520
▁baby	-9521
▁narr	-9522
▁armed	-9523
▁heijo	-9524
▁nyogo	-9525
▁renga	-9526
▁taiho	-9527
▁tokai	-9528
▁trend	-9529
▁amater	-9530
▁damage	-9531
▁eleven	-9532
▁dispute	-9533
▁opportun	-9534
▁quarters	-9535
▁suggests	-9536
▁tsushima	-9537
▁sightseeing	-9538
▁reconstructed	-9539
▁ギ	-9540
▁充	-9541
▁柄	-9542
▁珠	-9543
▁談	-9544
▁麹	-9545
▁実質	-9546
▁尼子	-9547
▁逃亡	-9548
▁開基	-9549
▁隆盛	-9550
▁食事	-9551
jime	-9552
ucho	-9553
▁しゅう	-9554
busho	-9555
inity	-9556
▁1866	-9557
▁オランダ	-9558
reated	-9559
▁bando	-9560
▁himem	-9561
▁fiscal	-9562
▁gotoba	-9563
▁nearby	-9564
▁unders	-9565
▁harvest	-9566
▁engishiki	-9567
▁performers	-9568
▁previously	-9569
▁tsunayoshi	-9570
▁implemented	-9571
▁ゲ	-9572
▁希	-9573
▁犯	-9574
▁骨	-9575
イル	-9576
nen	-9577
nov	-9578
▁なり	-9579
▁剣術	-9580
▁加茂	-9581
▁加藤	-9582
▁名所	-9583
▁崩壊	-9584
▁最近	-9585
▁次郎	-9586
▁消息	-9587
▁興行	-9588
▁表示	-9589
pass	-9590
▁105	-9591
bukyo	-9592
enari	-9593
rench	-9594
▁1964	-9595
▁aged	-9596
▁pair	-9597
▁トンネル	-9598
▁basho	-9599
▁matsuo	-9600
▁naishi	-9601
▁stored	-9602
▁customs	-9603
▁hanging	-9604
▁parents	-9605
▁seppuku	-9606
▁victory	-9607
▁doctrine	-9608
▁kanagawa	-9609
▁revision	-9610
▁chronicle	-9611
▁concerned	-9612
▁丘	-9613
▁租	-9614
▁づけ	-9615
▁三成	-9616
▁円墳	-9617
▁基準	-9618
▁天狗	-9619
▁姉妹	-9620
▁平野	-9621
▁砂糖	-9622
▁綾部	-9623
▁配流	-9624
▁重視	-9625
brev	-9626
▁dar	-9627
venth	-9628
▁club	-9629
▁shar	-9630
▁kanjo	-9631
▁loved	-9632
▁press	-9633
▁think	-9634
▁abbrev	-9635
▁resear	-9636
▁shaped	-9637
▁accompl	-9638
▁ibaraki	-9639
▁pointed	-9640
▁servant	-9641
▁organizations	-9642
▁嫌	-9643
▁旨	-9644
▁暴	-9645
たり	-9646
don	-9647
rys	-9648
▁gy	-9649
▁vo	-9650
▁しゃ	-9651
▁停止	-9652
▁広が	-9653
▁抵抗	-9654
▁発売	-9655
▁長慶	-9656
▁門人	-9657
ades	-9658
onse	-9659
▁bul	-9660
▁cha	-9661
▁ezo	-9662
▁正親町	-9663
▁神奈川	-9664
agata	-9665
▁eyes	-9666
▁girl	-9667
▁mong	-9668
▁skin	-9669
anthem	-9670
shichi	-9671
▁behav	-9672
▁bunko	-9673
▁ohara	-9674
▁corner	-9675
▁larger	-9676
▁purple	-9677
▁passing	-9678
▁shinsen	-9679
▁commemor	-9680
▁kusunoki	-9681
▁decorated	-9682
▁interpret	-9683
▁environment	-9684
▁呉	-9685
▁履	-9686
▁屯	-9687
▁昆	-9688
▁灌	-9689
▁砲	-9690
やく	-9691
ugg	-9692
▁させ	-9693
▁すぎ	-9694
▁上総	-9695
▁出兵	-9696
▁前半	-9697
▁加増	-9698
▁後者	-9699
▁権威	-9700
▁滅ぼ	-9701
▁神祇	-9702
apes	-9703
zeki	-9704
▁sky	-9705
▁まつり	-9706
▁大いに	-9707
akage	-9708
▁1935	-9709
▁fear	-9710
▁hiki	-9711
▁ning	-9712
▁yoro	-9713
▁chrys	-9714
▁jomon	-9715
▁adding	-9716
▁overth	-9717
▁resign	-9718
▁saemon	-9719
anthemum	-9720
▁liberal	-9721
▁category	-9722
▁broadcast	-9723
▁confirmed	-9724
くま	-9725
ステ	-9726
鳥羽	-9727
eed	-9728
▁おも	-9729
▁事態	-9730
▁具体	-9731
▁冠称	-9732
▁収め	-9733
▁叙任	-9734
▁法隆	-9735
▁花園	-9736
▁道真	-9737
▁酵母	-9738
▁高知	-9739
▁鷹司	-9740
▁lik	-9741
▁mob	-9742
▁rom	-9743
▁つとめ	-9744
▁京田辺	-9745
▁shot	-9746
▁honjo	-9747
general	-9748
▁cutting	-9749
▁chapters	-9750
▁holidays	-9751
▁response	-9752
▁shoshiinoge	-9753
▁國	-9754
▁猪	-9755
▁皆	-9756
▁腹	-9757
▁諡	-9758
▁たび	-9759
▁勅撰	-9760
▁大野	-9761
▁持統	-9762
▁政務	-9763
▁断絶	-9764
▁本社	-9765
▁法律	-9766
▁神武	-9767
▁解体	-9768
▁豊後	-9769
▁鎮守	-9770
コール	-9771
ound	-9772
tood	-9773
▁gos	-9774
▁vic	-9775
atomi	-9776
▁acts	-9777
▁alle	-9778
▁huge	-9779
atsuna	-9780
▁defin	-9781
▁taxes	-9782
▁republ	-9783
▁feature	-9784
▁keifuku	-9785
▁percent	-9786
▁rapidly	-9787
▁carrying	-9788
▁changing	-9789
▁classics	-9790
▁hanazono	-9791
▁himemiko	-9792
▁subordin	-9793
▁chrysanthemum	-9794
ny	-9795
▁扶	-9796
▁秦	-9797
神社	-9798
▁分割	-9799
▁山形	-9800
▁皇帝	-9801
omot	-9802
▁mah	-9803
▁木津川	-9804
ーション	-9805
azaki	-9806
enobu	-9807
isada	-9808
▁1883	-9809
▁engi	-9810
▁amago	-9811
▁block	-9812
▁shomu	-9813
▁boshin	-9814
▁crimin	-9815
▁recover	-9816
▁ordinance	-9817
▁袋	-9818
▁閣	-9819
セス	-9820
▁ひめ	-9821
▁作り	-9822
▁定着	-9823
▁屋号	-9824
▁時点	-9825
▁概念	-9826
▁落と	-9827
▁邸宅	-9828
▁野村	-9829
▁長女	-9830
▁雑誌	-9831
▁高麗	-9832
akyo	-9833
koto	-9834
ugen	-9835
▁oji	-9836
▁copy	-9837
▁saku	-9838
▁wine	-9839
▁photo	-9840
▁rever	-9841
▁mounds	-9842
▁writer	-9843
▁chicken	-9844
▁earthqu	-9845
▁isshiki	-9846
▁praised	-9847
▁amaterasu	-9848
▁practical	-9849
▁峯	-9850
▁磯	-9851
▁秩	-9852
▁辰	-9853
たび	-9854
▁下総	-9855
▁会館	-9856
▁国人	-9857
▁検校	-9858
▁楽し	-9859
▁法要	-9860
▁献上	-9861
▁理解	-9862
▁白川	-9863
▁義朝	-9864
tada	-9865
▁800	-9866
▁unf	-9867
▁後鳥羽	-9868
enori	-9869
motsu	-9870
▁goyo	-9871
▁kosa	-9872
▁moat	-9873
verage	-9874
▁komyo	-9875
▁border	-9876
▁likely	-9877
▁waiting	-9878
▁miyatsuko	-9879
▁predecess	-9880
▁criticized	-9881
▁utsunomiya	-9882
▁─	-9883
▁抑	-9884
▁歯	-9885
▁澤	-9886
obu	-9887
▁はず	-9888
▁イザ	-9889
▁品種	-9890
▁田村	-9891
▁赤松	-9892
▁高山	-9893
book	-9894
▁rob	-9895
▁1939	-9896
▁1958	-9897
▁acid	-9898
▁cake	-9899
▁kank	-9900
▁konp	-9901
▁luck	-9902
▁spot	-9903
▁waki	-9904
▁ceram	-9905
▁prison	-9906
▁wisdom	-9907
▁yawata	-9908
▁belongs	-9909
▁keyhole	-9910
▁saitama	-9911
▁trading	-9912
▁chairman	-9913
▁demonstr	-9914
▁preserved	-9915
▁朽	-9916
▁炊	-9917
▁触	-9918
クリ	-9919
▁収録	-9920
▁大乗	-9921
▁大寺	-9922
▁実現	-9923
▁府道	-9924
▁朱雀	-9925
▁武者	-9926
▁没年	-9927
▁漢詩	-9928
▁珍し	-9929
▁発祥	-9930
▁隊士	-9931
▁amb	-9932
▁voc	-9933
▁繰り返	-9934
abara	-9935
class	-9936
enaga	-9937
▁dang	-9938
▁applic	-9939
▁metrop	-9940
▁reward	-9941
▁brigade	-9942
▁killing	-9943
▁imported	-9944
▁survived	-9945
▁occasions	-9946
▁披	-9947
▁沢	-9948
che	-9949
ppo	-9950
▁ba	-9951
▁グル	-9952
▁共同	-9953
▁加工	-9954
▁勃発	-9955
▁大型	-9956
▁家業	-9957
▁平等	-9958
▁競技	-9959
▁駅舎	-9960
hyoe	-9961
▁ans	-9962
▁bag	-9963
▁始まり	-9964
▁shit	-9965
▁surpr	-9966
▁yayoi	-9967
▁dragon	-9968
▁multip	-9969
▁yoshiie	-9970
▁shochiku	-9971
▁superior	-9972
▁曹	-9973
▁融	-9974
こう	-9975
▁スト	-9976
▁デザ	-9977
▁年齢	-9978
▁慶喜	-9979
▁扱い	-9980
▁本文	-9981
▁桜井	-9982
▁異説	-9983
▁範囲	-9984
▁附属	-9985
▁高松	-9986
agyo	-9987
hana	-9988
▁obl	-9989
harma	-9990
▁1592	-9991
▁1858	-9992
▁1974	-9993
▁3000	-9994
▁azai	-9995
ointed	-9996
▁armor	-9997
▁verse	-9998
sequent	-9999
▁sutras	-10000
▁tandai	-10001
minomiya	-10002
▁akamatsu	-10003
▁sanetomo	-10004
▁takatsukasa	-10005
▁浸	-10006
▁獅	-10007
▁艦	-10008
デル	-10009
ライ	-10010
掛け	-10011
jim	-10012
▁いた	-10013
▁いま	-10014
▁四郎	-10015
▁大国	-10016
▁嫡流	-10017
▁推古	-10018
▁明和	-10019
▁普請	-10020
▁飾り	-10021
▁鴨川	-10022
boku	-10023
cill	-10024
erve	-10025
▁adm	-10026
▁aka	-10027
▁eye	-10028
ifusa	-10029
▁1936	-10030
▁gain	-10031
▁juro	-10032
▁vine	-10033
ection	-10034
etsuna	-10035
ranked	-10036
▁adopt	-10037
▁ryoma	-10038
▁subst	-10039
▁keicho	-10040
▁reality	-10041
▁showing	-10042
▁inspector	-10043
▁messenger	-10044
▁practices	-10045
.6	-10046
▁庫	-10047
しん	-10048
上が	-10049
▁64	-10050
▁出発	-10051
▁各種	-10052
▁国府	-10053
▁天然	-10054
▁往生	-10055
▁文部	-10056
▁朝日	-10057
▁栄え	-10058
▁祈願	-10059
▁西側	-10060
▁西国	-10061
▁論争	-10062
▁貴重	-10063
▁醸造	-10064
aled	-10065
icks	-10066
onoe	-10067
ping	-10068
wing	-10069
▁die	-10070
▁kor	-10071
▁あわせ	-10072
setsu	-10073
▁1975	-10074
▁chant	-10075
▁manju	-10076
▁usage	-10077
▁filled	-10078
▁correct	-10079
▁economy	-10080
▁locomot	-10081
▁printed	-10082
▁provide	-10083
▁systems	-10084
▁terminal	-10085
▁protected	-10086
▁representatives	-10087
▁乃	-10088
▁侯	-10089
▁穂	-10090
▁72	-10091
▁かね	-10092
▁処理	-10093
▁吉川	-10094
▁国有	-10095
▁庶流	-10096
▁承和	-10097
▁聖武	-10098
▁部隊	-10099
lets	-10100
piec	-10101
▁1184	-10102
▁chis	-10103
▁hung	-10104
azuchi	-10105
▁spots	-10106
▁edited	-10107
▁daytime	-10108
▁concentr	-10109
▁republic	-10110
▁indicated	-10111
▁specified	-10112
▁completion	-10113
▁奴	-10114
せん	-10115
six	-10116
▁57	-10117
▁サイ	-10118
▁上げ	-10119
▁伯爵	-10120
▁学術	-10121
▁探題	-10122
▁改易	-10123
▁教会	-10124
▁早世	-10125
▁混ぜ	-10126
▁番線	-10127
▁築城	-10128
▁総理	-10129
▁議会	-10130
▁キャン	-10131
▁引き継	-10132
▁西園寺	-10133
▁baek	-10134
▁hoko	-10135
▁kori	-10136
mikado	-10137
▁heiji	-10138
▁horyu	-10139
▁shoji	-10140
▁bottom	-10141
▁french	-10142
▁kengyo	-10143
▁advisor	-10144
▁comment	-10145
▁inaugur	-10146
▁preparation	-10147
▁+	-10148
▁労	-10149
▁済	-10150
▁麺	-10151
キー	-10152
▁il	-10153
▁いつ	-10154
▁たか	-10155
▁つか	-10156
▁助け	-10157
▁動物	-10158
▁建仁	-10159
▁東側	-10160
▁特殊	-10161
▁責任	-10162
▁arg	-10163
▁mel	-10164
▁つなが	-10165
eties	-10166
ogawa	-10167
▁felt	-10168
▁peak	-10169
▁sell	-10170
▁yang	-10171
▁dolls	-10172
▁frame	-10173
▁fujin	-10174
▁naito	-10175
▁onsen	-10176
▁tsubo	-10177
▁hikaru	-10178
▁resemb	-10179
▁russia	-10180
▁neither	-10181
▁roughly	-10182
▁shinbun	-10183
▁detailed	-10184
▁producing	-10185
▁represents	-10186
▁scriptures	-10187
▁亮	-10188
▁壇	-10189
▁宴	-10190
▁驚	-10191
▁鶏	-10192
pei	-10193
▁ショ	-10194
▁作曲	-10195
▁内蔵	-10196
▁太陽	-10197
▁官僚	-10198
▁少し	-10199
▁居住	-10200
▁工場	-10201
▁旅団	-10202
▁東福	-10203
▁松竹	-10204
▁楠木	-10205
▁浮世	-10206
ball	-10207
▁fue	-10208
▁rum	-10209
▁受け継	-10210
ifune	-10211
▁みなもと	-10212
▁amano	-10213
▁noted	-10214
▁roshi	-10215
▁soshi	-10216
▁circle	-10217
▁signal	-10218
▁complex	-10219
▁conflic	-10220
▁smaller	-10221
▁american	-10222
▁expanded	-10223
▁hideyori	-10224
▁question	-10225
▁shigemori	-10226
▁楼	-10227
▁磨	-10228
▁袴	-10229
討ち	-10230
osa	-10231
▁たと	-10232
▁元治	-10233
▁売り	-10234
▁太刀	-10235
▁失脚	-10236
▁方針	-10237
▁正し	-10238
▁火災	-10239
▁越え	-10240
▁項目	-10241
itab	-10242
▁ago	-10243
チェンジ	-10244
▁ikko	-10245
▁wish	-10246
amochi	-10247
▁gives	-10248
▁soybe	-10249
stitute	-10250
▁miyagi	-10251
▁ryukyu	-10252
▁saburo	-10253
▁syllab	-10254
▁tenshu	-10255
▁yoriie	-10256
▁steamed	-10257
▁nakayama	-10258
▁petition	-10259
▁インターチェンジ	-10260
▁enshrines	-10261
▁containing	-10262
▁foreigners	-10263
▁nationwide	-10264
▁“	-10265
▁檜	-10266
▁琴	-10267
▁答	-10268
▁箸	-10269
ノオ	-10270
▁入門	-10271
▁参考	-10272
▁参詣	-10273
▁名跡	-10274
▁寺町	-10275
▁市場	-10276
▁平定	-10277
▁彫刻	-10278
▁松井	-10279
▁根拠	-10280
▁比売	-10281
▁演出	-10282
▁男爵	-10283
▁石室	-10284
▁石田	-10285
▁茶室	-10286
▁要請	-10287
ingo	-10288
oser	-10289
▁ソース	-10290
unobu	-10291
▁suff	-10292
▁tone	-10293
modern	-10294
rapher	-10295
▁baron	-10296
▁grass	-10297
▁kodan	-10298
▁natto	-10299
▁sched	-10300
▁looked	-10301
▁naniwa	-10302
▁sonobe	-10303
▁subjug	-10304
▁believe	-10305
▁kokujin	-10306
▁passage	-10307
▁branches	-10308
▁daijokan	-10309
▁offering	-10310
▁sarugaku	-10311
▁writings	-10312
▁estimated	-10313
▁reputation	-10314
▁characterized	-10315
▁manufacturing	-10316
▁拍	-10317
int	-10318
▁ly	-10319
▁一行	-10320
▁出現	-10321
▁北陸	-10322
▁少輔	-10323
▁正平	-10324
メージ	-10325
anao	-10326
miya	-10327
▁ies	-10328
▁orn	-10329
▁tip	-10330
inger	-10331
▁kura	-10332
▁rear	-10333
▁apart	-10334
▁corps	-10335
▁kings	-10336
▁tsuku	-10337
▁announ	-10338
▁ishida	-10339
▁miyako	-10340
▁prefix	-10341
▁ability	-10342
▁animals	-10343
▁fortune	-10344
▁takechi	-10345
▁hijikata	-10346
▁kiyomizu	-10347
▁security	-10348
▁watanabe	-10349
▁publishing	-10350
▁distribution	-10351
▁云	-10352
▁埼	-10353
▁宸	-10354
▁岸	-10355
▁挟	-10356
▁櫓	-10357
▁琉	-10358
▁縫	-10359
▁耳	-10360
シャ	-10361
owa	-10362
▁人民	-10363
▁代官	-10364
▁内裏	-10365
▁出自	-10366
▁基盤	-10367
▁店舗	-10368
▁延伸	-10369
▁従軍	-10370
▁御前	-10371
▁言い	-10372
▁調味	-10373
▁階級	-10374
agai	-10375
omik	-10376
raku	-10377
▁ama	-10378
▁極めて	-10379
elled	-10380
▁1333	-10381
▁1917	-10382
▁higo	-10383
▁hoki	-10384
▁laid	-10385
▁wake	-10386
imitsu	-10387
▁alive	-10388
▁awaji	-10389
▁entry	-10390
▁hokur	-10391
▁honda	-10392
▁mourn	-10393
▁nagao	-10394
▁アルコール	-10395
▁broken	-10396
▁effort	-10397
▁conduct	-10398
▁finance	-10399
▁quickly	-10400
▁councill	-10401
▁evidence	-10402
▁agreement	-10403
▁yoshihisa	-10404
▁subsequent	-10405
▁杜	-10406
▁繋	-10407
▁誇	-10408
▁貝	-10409
取り	-10410
四郎	-10411
▁ほん	-10412
▁大橋	-10413
▁居士	-10414
▁政子	-10415
▁模様	-10416
▁民部	-10417
▁法号	-10418
▁関与	-10419
▁離宮	-10420
▁高田	-10421
aten	-10422
kane	-10423
mark	-10424
▁bed	-10425
▁cot	-10426
▁fal	-10427
▁nir	-10428
▁tob	-10429
rison	-10430
▁1937	-10431
▁dorm	-10432
▁goro	-10433
▁kebi	-10434
akinki	-10435
▁altar	-10436
▁asian	-10437
▁artist	-10438
▁degree	-10439
▁selling	-10440
▁shinsho	-10441
▁umewaka	-10442
▁effective	-10443
▁yoshisada	-10444
▁diplomatic	-10445
▁settlement	-10446
▁assassination	-10447
▁徐	-10448
なし	-10449
シー	-10450
饅頭	-10451
ell	-10452
▁74	-10453
▁さえ	-10454
▁側面	-10455
▁内藤	-10456
▁拒否	-10457
▁渡来	-10458
▁獅子	-10459
▁秀頼	-10460
▁譜代	-10461
▁鈴木	-10462
▁開祖	-10463
▁香り	-10464
hige	-10465
▁mad	-10466
▁mem	-10467
ichin	-10468
▁1221	-10469
▁sann	-10470
▁cloud	-10471
▁kanin	-10472
▁tsuki	-10473
unosuke	-10474
▁coffee	-10475
▁cooper	-10476
▁seishi	-10477
ographic	-10478
▁tsuruga	-10479
▁automatic	-10480
▁hidetsugu	-10481
▁yoshitada	-10482
▁centralized	-10483
▁significant	-10484
▁丈	-10485
▁呪	-10486
▁廻	-10487
▁栽	-10488
▁熟	-10489
▁獲	-10490
▁看	-10491
▁粟	-10492
▁邪	-10493
換え	-10494
iza	-10495
▁67	-10496
▁さす	-10497
▁サー	-10498
▁スポ	-10499
▁公式	-10500
▁参拝	-10501
▁塔頭	-10502
▁建長	-10503
▁文永	-10504
▁父子	-10505
▁隣接	-10506
▁集ま	-10507
iles	-10508
sour	-10509
▁yok	-10510
umiya	-10511
utive	-10512
▁1938	-10513
▁heat	-10514
▁page	-10515
▁tama	-10516
▁blade	-10517
▁burnt	-10518
▁doing	-10519
▁stall	-10520
▁baekje	-10521
▁linked	-10522
▁tajima	-10523
▁invaded	-10524
▁kebiishi	-10525
▁policies	-10526
▁inscribed	-10527
▁詞	-10528
▁酢	-10529
らし	-10530
違使	-10531
bal	-10532
▁はん	-10533
▁園部	-10534
▁埋葬	-10535
▁攻略	-10536
▁政変	-10537
▁検非	-10538
▁準備	-10539
▁石器	-10540
▁稲葉	-10541
▁障子	-10542
▁饅頭	-10543
▁高級	-10544
anda	-10545
omen	-10546
▁nur	-10547
▁小さな	-10548
field	-10549
▁1916	-10550
▁1962	-10551
▁clim	-10552
▁hata	-10553
▁hira	-10554
▁onna	-10555
▁send	-10556
▁test	-10557
▁イメージ	-10558
▁検非違使	-10559
stream	-10560
▁assum	-10561
▁chest	-10562
▁kaido	-10563
▁patri	-10564
▁shell	-10565
▁simpl	-10566
▁partly	-10567
▁tensho	-10568
▁yanagi	-10569
▁tourist	-10570
▁detached	-10571
▁elements	-10572
▁customers	-10573
▁kitakinki	-10574
▁kyotanabe	-10575
▁yoshimoto	-10576
▁〜	-10577
▁劣	-10578
▁巫	-10579
▁あん	-10580
▁光源	-10581
▁八条	-10582
▁商業	-10583
▁土方	-10584
▁埼玉	-10585
▁弥生	-10586
▁提供	-10587
▁整理	-10588
▁止め	-10589
▁現地	-10590
▁管轄	-10591
▁遷任	-10592
▁長尾	-10593
▁養父	-10594
っきり	-10595
lfth	-10596
masa	-10597
sing	-10598
wise	-10599
▁どちら	-10600
afuku	-10601
track	-10602
umaru	-10603
▁1860	-10604
▁hara	-10605
▁wild	-10606
▁depot	-10607
▁twice	-10608
▁dramas	-10609
▁karate	-10610
▁propos	-10611
▁rising	-10612
▁contest	-10613
▁kenshin	-10614
▁proceed	-10615
▁twelfth	-10616
▁concluded	-10617
▁formation	-10618
▁prosperity	-10619
▁explanation	-10620
▁successively	-10621
▁architectural	-10622
▁寂	-10623
▁灰	-10624
▁誰	-10625
つか	-10626
oss	-10627
rup	-10628
▁企業	-10629
▁作法	-10630
▁学者	-10631
▁弘安	-10632
▁敗北	-10633
▁日間	-10634
▁栽培	-10635
▁欧米	-10636
▁確保	-10637
▁精神	-10638
▁運用	-10639
▁遷都	-10640
▁部屋	-10641
▁風習	-10642
aint	-10643
chen	-10644
itor	-10645
tomo	-10646
▁ダイヤ	-10647
aimed	-10648
ashim	-10649
▁appa	-10650
▁ever	-10651
▁todo	-10652
▁アクセス	-10653
ilized	-10654
▁sales	-10655
▁amitab	-10656
▁potato	-10657
▁powder	-10658
▁search	-10659
▁daigaku	-10660
▁episode	-10661
▁masters	-10662
▁scrolls	-10663
▁convention	-10664
▁establishing	-10665
▁吟	-10666
▁胴	-10667
▁葵	-10668
▁迫	-10669
われ	-10670
マン	-10671
違い	-10672
isf	-10673
▁oi	-10674
▁とく	-10675
▁中務	-10676
▁井伊	-10677
▁入内	-10678
▁包囲	-10679
▁千代	-10680
▁対抗	-10681
▁朽木	-10682
▁梅若	-10683
▁琉球	-10684
▁童子	-10685
▁被害	-10686
▁門院	-10687
aval	-10688
▁hem	-10689
▁tei	-10690
amiya	-10691
igaku	-10692
▁1615	-10693
▁cool	-10694
▁eleg	-10695
▁raid	-10696
▁semi	-10697
▁jinmu	-10698
▁senju	-10699
▁covers	-10700
▁apprent	-10701
▁hachijo	-10702
▁housing	-10703
▁revived	-10704
▁nishikyo	-10705
▁selection	-10706
▁掘	-10707
ェイ	-10708
分け	-10709
▁なん	-10710
▁久世	-10711
▁受領	-10712
▁斎宮	-10713
▁無量	-10714
▁生地	-10715
▁直義	-10716
▁終了	-10717
▁義教	-10718
▁翌日	-10719
hand	-10720
unci	-10721
▁atm	-10722
ipped	-10723
ogies	-10724
▁holy	-10725
lusion	-10726
▁affil	-10727
▁broth	-10728
▁nikki	-10729
▁reass	-10730
▁shoko	-10731
▁troub	-10732
▁attain	-10733
▁moment	-10734
▁suzaku	-10735
▁kikuchi	-10736
▁lecture	-10737
▁launched	-10738
▁munemori	-10739
▁precepts	-10740
▁punished	-10741
▁suitable	-10742
▁takakuni	-10743
▁retreated	-10744
▁suspended	-10745
▁yoshitoki	-10746
▁earthquake	-10747
▁possession	-10748
合い	-10749
rid	-10750
wed	-10751
▁--	-10752
▁wr	-10753
▁まい	-10754
▁キャ	-10755
▁乗せ	-10756
▁同日	-10757
▁困難	-10758
▁延宝	-10759
▁撤退	-10760
▁町人	-10761
▁翻訳	-10762
▁遠江	-10763
yout	-10764
mitsu	-10765
▁forg	-10766
▁受け入れ	-10767
ushing	-10768
▁ameno	-10769
▁somen	-10770
▁zeami	-10771
▁arrows	-10772
▁better	-10773
▁consul	-10774
▁depict	-10775
▁oshima	-10776
▁takano	-10777
▁kutsuki	-10778
▁lantern	-10779
▁amitabha	-10780
▁utensils	-10781
▁believers	-10782
▁dissolved	-10783
▁personnel	-10784
▁sumiyoshi	-10785
▁takahashi	-10786
▁transform	-10787
▁yoshiteru	-10788
▁understood	-10789
▁celebration	-10790
▁predecessor	-10791
▁assassinated	-10792
▁fushiminomiya	-10793
uo	-10794
▁傍	-10795
▁庇	-10796
▁蜂	-10797
▁鳳	-10798
遣い	-10799
pri	-10800
▁おう	-10801
▁創業	-10802
▁占領	-10803
▁土岐	-10804
▁場面	-10805
▁実朝	-10806
▁家族	-10807
▁少年	-10808
▁居城	-10809
▁御殿	-10810
▁構内	-10811
▁解散	-10812
▁輸送	-10813
▁電化	-10814
▁yab	-10815
▁のりば	-10816
shige	-10817
▁chem	-10818
▁koho	-10819
▁rate	-10820
▁sund	-10821
▁デザイン	-10822
ichiro	-10823
▁abbot	-10824
▁guide	-10825
▁invol	-10826
▁sashi	-10827
▁write	-10828
▁consum	-10829
▁matsui	-10830
▁poison	-10831
▁genroku	-10832
▁mansion	-10833
▁odawara	-10834
▁expected	-10835
▁formally	-10836
▁interpre	-10837
▁numerous	-10838
▁withdrew	-10839
▁advocated	-10840
▁contempor	-10841
▁彩	-10842
囃子	-10843
cle	-10844
met	-10845
▁ue	-10846
▁けい	-10847
▁シャ	-10848
▁住吉	-10849
▁信号	-10850
▁参戦	-10851
▁天長	-10852
▁正徳	-10853
▁淡路	-10854
▁漬け	-10855
▁輸入	-10856
▁通過	-10857
▁高槻	-10858
irin	-10859
sive	-10860
toge	-10861
yoin	-10862
▁hab	-10863
▁小田原	-10864
ailed	-10865
cious	-10866
▁buke	-10867
▁calc	-10868
▁mono	-10869
▁rooms	-10870
▁yanag	-10871
▁revolt	-10872
▁subjects	-10873
▁birthplace	-10874
▁届	-10875
▁笑	-10876
▁翁	-10877
▁誠	-10878
わし	-10879
▁くに	-10880
▁ぞう	-10881
▁中京	-10882
▁分野	-10883
▁叙位	-10884
▁吉備	-10885
▁周防	-10886
▁執筆	-10887
▁安永	-10888
▁対馬	-10889
▁従兄	-10890
▁日向	-10891
▁本多	-10892
▁松山	-10893
▁秀次	-10894
▁終え	-10895
▁親子	-10896
▁語源	-10897
▁車庫	-10898
くまで	-10899
▁700	-10900
▁光源氏	-10901
▁天王寺	-10902
acing	-10903
awase	-10904
▁saka	-10905
olitan	-10906
ushiki	-10907
▁daini	-10908
▁draft	-10909
▁illeg	-10910
▁kajuji	-10911
▁mongol	-10912
▁nearly	-10913
▁tumuli	-10914
▁erected	-10915
▁behavior	-10916
▁circular	-10917
▁secretly	-10918
▁constable	-10919
▁yoshimura	-10920
▁cooperation	-10921
▁術	-10922
ads	-10923
tok	-10924
▁大衆	-10925
▁定か	-10926
▁当然	-10927
▁復元	-10928
▁悪化	-10929
▁折り	-10930
▁明確	-10931
▁牧野	-10932
▁産地	-10933
▁義政	-10934
▁職人	-10935
▁芝居	-10936
▁衛門	-10937
garu	-10938
▁unp	-10939
▁wet	-10940
akiyo	-10941
onent	-10942
▁1983	-10943
▁itsu	-10944
▁pupp	-10945
▁equip	-10946
▁gyoku	-10947
▁sanct	-10948
▁fisher	-10949
▁ladies	-10950
▁needed	-10951
▁sports	-10952
▁uniform	-10953
▁uzumasa	-10954
▁creation	-10955
▁masanori	-10956
▁entrusted	-10957
▁connecting	-10958
▁controller	-10959
▁councillor	-10960
▁collectively	-10961
▁募	-10962
▁栃	-10963
▁萩	-10964
▁輩	-10965
ows	-10966
▁71	-10967
▁北山	-10968
▁合衆	-10969
▁同士	-10970
▁嗣子	-10971
▁大日	-10972
▁方丈	-10973
▁日露	-10974
▁王権	-10975
▁筆頭	-10976
▁製品	-10977
▁資格	-10978
ales	-10979
anga	-10980
▁bak	-10981
akabe	-10982
▁poll	-10983
▁wore	-10984
▁diame	-10985
▁jinja	-10986
▁takara	-10987
▁pottery	-10988
▁reflect	-10989
▁hokuriku	-10990
▁takamatsu	-10991
▁categorized	-10992
▁嘆	-10993
▁尉	-10994
▁攘	-10995
▁oh	-10996
▁勧め	-10997
▁軌道	-10998
aryo	-10999
ises	-11000
vana	-11001
▁右衛門	-11002
esuke	-11003
▁jugo	-11004
▁prep	-11005
▁あくまで	-11006
▁beans	-11007
▁doesn	-11008
▁herit	-11009
▁hiden	-11010
▁holds	-11011
▁tsuru	-11012
▁helped	-11013
▁kaneie	-11014
▁scenes	-11015
▁sekkan	-11016
▁withdr	-11017
▁fiction	-11018
▁shitenno	-11019
▁combination	-11020
.0	-11021
▁奮	-11022
▁徹	-11023
▁樺	-11024
▁竣	-11025
▁緩	-11026
▁耕	-11027
▁頻	-11028
▁駒	-11029
▁mm	-11030
▁いけ	-11031
▁けん	-11032
▁三井	-11033
▁但馬	-11034
▁四十	-11035
▁富山	-11036
▁盆地	-11037
▁神仏	-11038
▁遣唐	-11039
▁重盛	-11040
▁鎮圧	-11041
▁顧問	-11042
▁ram	-11043
▁wed	-11044
▁yon	-11045
▁kaji	-11046
▁pork	-11047
▁sein	-11048
▁truth	-11049
onomiya	-11050
▁bicchu	-11051
▁imposs	-11052
▁kanjin	-11053
▁obtain	-11054
▁closely	-11055
▁confisc	-11056
▁inherit	-11057
▁initial	-11058
▁chikuzen	-11059
▁elevated	-11060
▁criticism	-11061
▁syllabary	-11062
▁tsuchimikado	-11063
▁燃	-11064
▁芹	-11065
▁輔	-11066
いで	-11067
ッチ	-11068
ビス	-11069
諏訪	-11070
iss	-11071
▁za	-11072
▁ざる	-11073
▁とど	-11074
▁ぶり	-11075
▁乳母	-11076
▁仕事	-11077
▁伊東	-11078
▁出演	-11079
▁創始	-11080
▁宗盛	-11081
▁押し	-11082
▁政所	-11083
▁減少	-11084
▁渡辺	-11085
▁発酵	-11086
▁相互	-11087
▁紀元	-11088
▁習慣	-11089
▁肥後	-11090
▁菊池	-11091
▁遺構	-11092
bing	-11093
ette	-11094
▁nio	-11095
▁モデル	-11096
ading	-11097
hongi	-11098
iture	-11099
▁carp	-11100
▁depos	-11101
▁hatsu	-11102
▁saiin	-11103
▁sixty	-11104
amental	-11105
▁kagawa	-11106
▁moving	-11107
▁clearly	-11108
▁favored	-11109
▁nakagyo	-11110
▁species	-11111
▁vicinity	-11112
▁extension	-11113
▁decorative	-11114
▁impossible	-11115
▁successful	-11116
▁sovereignty	-11117
▁commissioner	-11118
▁investigation	-11119
gy	-11120
▁坪	-11121
▁篆	-11122
▁赦	-11123
▁魂	-11124
どう	-11125
ナー	-11126
hor	-11127
▁きっ	-11128
▁たけ	-11129
▁スサ	-11130
▁使節	-11131
▁全線	-11132
▁制限	-11133
▁努め	-11134
▁太秦	-11135
▁成分	-11136
▁拾遺	-11137
▁灌頂	-11138
▁移築	-11139
▁行列	-11140
▁西軍	-11141
▁試み	-11142
▁過去	-11143
▁選定	-11144
four	-11145
icts	-11146
ikai	-11147
▁ult	-11148
▁土御門	-11149
based	-11150
▁ason	-11151
▁jiro	-11152
▁shuk	-11153
▁stor	-11154
▁ふじわら	-11155
▁peers	-11156
▁share	-11157
▁speed	-11158
▁chinju	-11159
▁create	-11160
▁fushin	-11161
▁layout	-11162
▁saicho	-11163
▁taishi	-11164
▁wafuku	-11165
▁privile	-11166
▁setting	-11167
▁viewing	-11168
▁nobutada	-11169
▁traveled	-11170
▁abolition	-11171
▁dynasties	-11172
▁considering	-11173
▁accompaniment	-11174
eo	-11175
▁【	-11176
▁】	-11177
▁値	-11178
▁沼	-11179
▁覆	-11180
まし	-11181
isd	-11182
▁ご飯	-11183
▁さい	-11184
▁シン	-11185
▁住民	-11186
▁国分	-11187
▁奉納	-11188
▁対策	-11189
▁帰京	-11190
▁急速	-11191
▁戦前	-11192
▁掲載	-11193
▁攘夷	-11194
▁本項	-11195
▁校地	-11196
▁留守	-11197
▁竣工	-11198
▁薩軍	-11199
▁青年	-11200
▁養成	-11201
bumi	-11202
krit	-11203
▁1156	-11204
▁warm	-11205
▁はっきり	-11206
icient	-11207
▁depri	-11208
▁exemp	-11209
▁wheat	-11210
▁inters	-11211
▁horizon	-11212
▁license	-11213
▁hisahide	-11214
▁judicial	-11215
▁printing	-11216
▁sumitomo	-11217
▁suppress	-11218
▁潜	-11219
▁硬	-11220
▁糖	-11221
▁賛	-11222
とう	-11223
▁je	-11224
▁くれ	-11225
▁交換	-11226
▁倒れ	-11227
▁元弘	-11228
▁劇場	-11229
▁化粧	-11230
▁北側	-11231
▁区域	-11232
▁哲学	-11233
▁喜多	-11234
▁大分	-11235
▁推進	-11236
▁極楽	-11237
▁正確	-11238
▁死者	-11239
▁注目	-11240
▁男女	-11241
▁知識	-11242
▁長浜	-11243
▁fum	-11244
▁hom	-11245
▁ktr	-11246
▁kuw	-11247
▁mut	-11248
aches	-11249
antan	-11250
eroku	-11251
fushi	-11252
▁hatt	-11253
▁root	-11254
▁seaw	-11255
▁suwa	-11256
▁trig	-11257
▁スサノオ	-11258
ashira	-11259
endent	-11260
yanagi	-11261
▁aimed	-11262
▁benef	-11263
▁falls	-11264
▁moron	-11265
▁ninna	-11266
▁dharma	-11267
▁nagato	-11268
▁rivers	-11269
▁strugg	-11270
▁gardens	-11271
▁guarded	-11272
▁okazaki	-11273
▁tsukasa	-11274
▁wealthy	-11275
▁sanskrit	-11276
▁occasionally	-11277
ey	-11278
▁倍	-11279
▁塾	-11280
▁暮	-11281
しゃ	-11282
ラム	-11283
ica	-11284
ugu	-11285
▁作家	-11286
▁判官	-11287
▁固定	-11288
▁小山	-11289
▁彦根	-11290
▁後見	-11291
▁改良	-11292
▁文様	-11293
▁本家	-11294
▁消費	-11295
▁猿楽	-11296
▁盛り	-11297
▁育て	-11298
▁頼家	-11299
ague	-11300
▁bra	-11301
▁tos	-11302
achis	-11303
oking	-11304
▁none	-11305
▁recl	-11306
▁ようやく	-11307
aneous	-11308
minute	-11309
▁bills	-11310
▁brown	-11311
▁slope	-11312
▁abroad	-11313
▁cotton	-11314
▁phrase	-11315
▁skills	-11316
▁soseki	-11317
▁starts	-11318
▁daikaku	-11319
▁hashiba	-11320
▁hunting	-11321
▁diameter	-11322
▁nagahama	-11323
▁shichijo	-11324
▁sukeroku	-11325
▁collapsed	-11326
▁discussed	-11327
▁movements	-11328
▁composition	-11329
▁manuscripts	-11330
▁christianity	-11331
▁contemporary	-11332
.4	-11333
▁丞	-11334
▁髷	-11335
クト	-11336
般若	-11337
els	-11338
▁カバ	-11339
▁一向	-11340
▁固め	-11341
▁後藤	-11342
▁明神	-11343
▁書物	-11344
▁皇居	-11345
▁着物	-11346
▁苦し	-11347
▁葛城	-11348
▁蒸気	-11349
▁認識	-11350
▁諏訪	-11351
▁野菜	-11352
▁高島	-11353
akai	-11354
zume	-11355
▁fed	-11356
▁osu	-11357
enses	-11358
phere	-11359
▁1500	-11360
▁taxi	-11361
▁blind	-11362
▁jitsu	-11363
▁bodies	-11364
▁jurisd	-11365
▁suppor	-11366
▁unable	-11367
▁counted	-11368
▁enacted	-11369
▁results	-11370
▁confront	-11371
▁continue	-11372
▁covering	-11373
▁declared	-11374
▁matsunaga	-11375
▁seasoning	-11376
▁structures	-11377
▁publication	-11378
▁reconstruction	-11379
▁挿	-11380
▁耐	-11381
▁購	-11382
ble	-11383
iru	-11384
pic	-11385
▁77	-11386
▁三宅	-11387
▁丸太	-11388
▁初頭	-11389
▁各国	-11390
▁大覚	-11391
▁寄せ	-11392
▁当て	-11393
▁敷地	-11394
▁方形	-11395
▁末裔	-11396
▁格式	-11397
▁流罪	-11398
▁猶子	-11399
▁群馬	-11400
▁西南	-11401
▁過ご	-11402
▁香川	-11403
じょう	-11404
akko	-11405
▁701	-11406
▁dwe	-11407
▁ign	-11408
▁pin	-11409
▁ぎょう	-11410
apers	-11411
▁core	-11412
▁ends	-11413
▁brush	-11414
▁exact	-11415
▁gakko	-11416
▁gunma	-11417
▁kodai	-11418
▁recru	-11419
▁thing	-11420
▁whale	-11421
▁adachi	-11422
▁namely	-11423
▁parent	-11424
▁resour	-11425
▁valued	-11426
▁conspir	-11427
▁weapons	-11428
▁centered	-11429
▁eleventh	-11430
▁improved	-11431
▁motonari	-11432
▁conflicts	-11433
▁converted	-11434
▁specialty	-11435
▁examination	-11436
▁illustrated	-11437
▁proclamation	-11438
▁representing	-11439
▁払	-11440
づけ	-11441
なる	-11442
メン	-11443
▁すけ	-11444
▁キロ	-11445
▁共和	-11446
▁南側	-11447
▁妙心	-11448
▁寵愛	-11449
▁山中	-11450
▁工学	-11451
▁昆布	-11452
▁来る	-11453
▁略歴	-11454
▁舞踊	-11455
▁襲撃	-11456
▁見解	-11457
▁郷土	-11458
▁長門	-11459
▁題材	-11460
room	-11461
▁bac	-11462
ikuni	-11463
kyoku	-11464
▁gamo	-11465
▁onto	-11466
▁benkei	-11467
▁promin	-11468
▁sakura	-11469
▁burning	-11470
▁myoshin	-11471
▁anecdote	-11472
▁european	-11473
▁indicate	-11474
▁multiple	-11475
▁paternal	-11476
▁decreased	-11477
▁decoration	-11478
▁reassigned	-11479
▁competition	-11480
▁opportunity	-11481
▁jurisdiction	-11482
▁specifically	-11483
▁喪	-11484
▁曽	-11485
大路	-11486
▁あい	-11487
▁三千	-11488
▁不足	-11489
▁勧進	-11490
▁危機	-11491
▁多様	-11492
▁大会	-11493
▁大半	-11494
▁太田	-11495
▁寄託	-11496
▁岡崎	-11497
▁島根	-11498
▁授与	-11499
▁綱吉	-11500
▁縄文	-11501
▁茨城	-11502
▁蓮華	-11503
▁門跡	-11504
▁rai	-11505
▁flag	-11506
▁rang	-11507
▁oblig	-11508
▁ratio	-11509
bayashi	-11510
▁damaged	-11511
▁england	-11512
▁greater	-11513
▁legends	-11514
▁machine	-11515
▁confined	-11516
▁friendship	-11517
▁administrator	-11518
▁consideration	-11519
▁孔	-11520
▁束	-11521
▁眼	-11522
▁餡	-11523
ズム	-11524
off	-11525
▁かわ	-11526
▁主導	-11527
▁元来	-11528
▁名誉	-11529
▁家集	-11530
▁投げ	-11531
▁旅行	-11532
▁案内	-11533
▁細か	-11534
▁羽柴	-11535
▁脱出	-11536
▁超え	-11537
▁載せ	-11538
akan	-11539
eper	-11540
oten	-11541
▁ask	-11542
▁fat	-11543
hitsu	-11544
▁1961	-11545
▁beef	-11546
▁item	-11547
▁meal	-11548
▁mere	-11549
▁サービス	-11550
omachi	-11551
temple	-11552
▁appeal	-11553
▁guests	-11554
▁hikone	-11555
▁courtes	-11556
▁germany	-11557
▁resided	-11558
▁shinden	-11559
unciation	-11560
▁affected	-11561
▁heritage	-11562
▁locations	-11563
▁governmental	-11564
▁universities	-11565
gn	-11566
▁婦	-11567
▁梶	-11568
▁沈	-11569
▁謹	-11570
▁貧	-11571
キノ	-11572
▁不満	-11573
▁主体	-11574
▁併せ	-11575
▁北朝	-11576
▁壁画	-11577
▁大陸	-11578
▁松永	-11579
▁次々	-11580
▁民族	-11581
▁没落	-11582
▁紅葉	-11583
▁蘭学	-11584
▁遊女	-11585
oked	-11586
▁bok	-11587
▁ced	-11588
▁lod	-11589
▁世阿弥	-11590
uraku	-11591
▁cris	-11592
▁miwa	-11593
▁pard	-11594
▁pron	-11595
▁しばらく	-11596
▁stamp	-11597
▁carved	-11598
▁daruma	-11599
▁handle	-11600
▁mathem	-11601
▁repair	-11602
▁contrib	-11603
▁histori	-11604
▁imposed	-11605
▁scatter	-11606
▁shimane	-11607
▁favorite	-11608
▁sawamura	-11609
▁yorinaga	-11610
▁attendant	-11611
▁southeast	-11612
▁understand	-11613
.2	-11614
▁恭	-11615
▁損	-11616
▁橿	-11617
▁疎	-11618
▁肩	-11619
やま	-11620
top	-11621
▁主君	-11622
▁五代	-11623
▁僧都	-11624
▁再開	-11625
▁出産	-11626
▁徐々	-11627
▁日清	-11628
▁最澄	-11629
▁権限	-11630
▁民衆	-11631
▁直前	-11632
▁移住	-11633
▁締結	-11634
▁義輝	-11635
▁越中	-11636
▁金属	-11637
adai	-11638
maro	-11639
play	-11640
▁ame	-11641
▁bud	-11642
▁gas	-11643
▁討ち取	-11644
okuni	-11645
oried	-11646
uting	-11647
▁kelp	-11648
▁subs	-11649
▁exile	-11650
▁sharp	-11651
▁tells	-11652
related	-11653
▁agreed	-11654
▁kokufu	-11655
▁movies	-11656
▁rarely	-11657
▁totomi	-11658
▁friends	-11659
▁governed	-11660
▁honorary	-11661
▁magazine	-11662
▁masamoto	-11663
▁observed	-11664
▁valuable	-11665
▁resulting	-11666
▁improvement	-11667
▁metropolitan	-11668
▁愚	-11669
▁溶	-11670
▁肖	-11671
いん	-11672
だい	-11673
ッド	-11674
▁むら	-11675
▁アイ	-11676
▁佐藤	-11677
▁例外	-11678
▁依頼	-11679
▁囃子	-11680
▁宣旨	-11681
▁座主	-11682
▁弓矢	-11683
▁歌合	-11684
▁画家	-11685
▁訴え	-11686
▁貢献	-11687
agoe	-11688
arai	-11689
iber	-11690
umin	-11691
▁カバネ	-11692
chome	-11693
▁imag	-11694
ternal	-11695
▁conve	-11696
▁lyric	-11697
▁nobum	-11698
osphere	-11699
yatsuko	-11700
▁haikai	-11701
▁perman	-11702
▁titled	-11703
▁tickets	-11704
▁unified	-11705
▁kitayama	-11706
▁normally	-11707
▁shimotsu	-11708
▁yorimasa	-11709
▁instructor	-11710
▁researcher	-11711
▁俵	-11712
▁堤	-11713
▁繊	-11714
ocr	-11715
ota	-11716
▁しめ	-11717
▁チャ	-11718
▁儒学	-11719
▁千家	-11720
▁司令	-11721
▁外務	-11722
▁実権	-11723
▁最上	-11724
▁深草	-11725
▁煎茶	-11726
▁特色	-11727
▁筑前	-11728
▁答え	-11729
▁蒲生	-11730
▁遺産	-11731
▁閑院	-11732
▁馬子	-11733
▁iwa	-11734
▁ルート	-11735
▁東大寺	-11736
sized	-11737
▁koyo	-11738
▁nank	-11739
▁caval	-11740
▁halls	-11741
▁jisho	-11742
▁raise	-11743
▁skill	-11744
licated	-11745
manship	-11746
▁shaved	-11747
▁supply	-11748
utamachi	-11749
▁attract	-11750
▁demoted	-11751
▁diction	-11752
▁izanagi	-11753
▁manners	-11754
▁attitude	-11755
▁jushiinojo	-11756
▁opposition	-11757
▁repeatedly	-11758
▁廟	-11759
▁芭	-11760
▁誘	-11761
▁豚	-11762
▁さか	-11763
▁内務	-11764
▁園城	-11765
▁宝亀	-11766
▁実在	-11767
▁宮家	-11768
▁掲げ	-11769
▁旧制	-11770
▁曾孫	-11771
▁芭蕉	-11772
▁連盟	-11773
▁高ま	-11774
▁高橋	-11775
utei	-11776
▁gor	-11777
▁どおり	-11778
▁りゅう	-11779
▁大宰府	-11780
▁1181	-11781
▁1575	-11782
▁hero	-11783
▁myth	-11784
▁nose	-11785
▁sino	-11786
▁tact	-11787
▁tied	-11788
nosuke	-11789
yamuni	-11790
▁hiros	-11791
▁jiuta	-11792
▁kamon	-11793
▁umako	-11794
▁units	-11795
▁income	-11796
▁kilome	-11797
▁signed	-11798
▁varies	-11799
▁blossom	-11800
▁tochigi	-11801
▁strictly	-11802
▁container	-11803
▁resistance	-11804
▁促	-11805
▁傘	-11806
▁枕	-11807
▁謡	-11808
eck	-11809
lin	-11810
▁げん	-11811
▁フェ	-11812
▁儀礼	-11813
▁八代	-11814
▁勅使	-11815
▁原型	-11816
▁味方	-11817
▁橿原	-11818
▁正四	-11819
▁法令	-11820
▁神名	-11821
▁組合	-11822
▁過程	-11823
▁配下	-11824
▁従兄弟	-11825
atani	-11826
shaku	-11827
▁1857	-11828
▁kiso	-11829
▁yomi	-11830
illing	-11831
itsugu	-11832
▁banqu	-11833
▁chugoku	-11834
▁sleeves	-11835
▁horizont	-11836
▁proposal	-11837
▁realized	-11838
▁katsuragi	-11839
▁masashige	-11840
▁varieties	-11841
▁collections	-11842
▁燈	-11843
▁褒	-11844
のう	-11845
受け	-11846
ema	-11847
nai	-11848
uch	-11849
unk	-11850
▁ゆえ	-11851
▁イン	-11852
▁ラー	-11853
▁万国	-11854
▁五男	-11855
▁和睦	-11856
▁宮崎	-11857
▁宸翰	-11858
▁正成	-11859
▁禅師	-11860
▁絵師	-11861
▁購入	-11862
bori	-11863
▁aoi	-11864
▁ash	-11865
▁fit	-11866
▁能楽師	-11867
acity	-11868
atoki	-11869
imune	-11870
mises	-11871
▁1601	-11872
▁1854	-11873
▁anal	-11874
▁exer	-11875
▁firm	-11876
▁legs	-11877
▁shut	-11878
▁team	-11879
making	-11880
mikoto	-11881
urally	-11882
▁azana	-11883
▁lunch	-11884
▁tengu	-11885
▁hirano	-11886
▁iemoto	-11887
▁seeing	-11888
▁danjuro	-11889
▁prepare	-11890
▁raising	-11891
▁miyazaki	-11892
▁purposes	-11893
▁serizawa	-11894
▁hairstyle	-11895
▁masterpiec	-11896
.1	-11897
▁×	-11898
▁忘	-11899
ろん	-11900
ray	-11901
▁ひろ	-11902
▁もら	-11903
▁ワキ	-11904
▁兵力	-11905
▁兼家	-11906
▁山水	-11907
▁所司	-11908
▁東洋	-11909
▁社殿	-11910
▁諡号	-11911
▁跡地	-11912
▁部門	-11913
▁難し	-11914
▁領国	-11915
awar	-11916
▁hel	-11917
▁jus	-11918
▁sex	-11919
▁ando	-11920
▁karo	-11921
▁tear	-11922
▁chiyo	-11923
▁games	-11924
▁kobun	-11925
▁solid	-11926
abatake	-11927
▁nanzen	-11928
▁puppet	-11929
▁sought	-11930
▁effects	-11931
▁keishin	-11932
▁retreat	-11933
▁shibata	-11934
▁strings	-11935
▁rejected	-11936
▁importance	-11937
▁calligrapher	-11938
▁interpretation	-11939
oi	-11940
▁弔	-11941
▁微	-11942
▁慧	-11943
▁旭	-11944
▁此	-11945
▁溝	-11946
▁稽	-11947
▁紛	-11948
ろう	-11949
bai	-11950
kes	-11951
▁ステ	-11952
▁メー	-11953
▁一派	-11954
▁人員	-11955
▁付属	-11956
▁公使	-11957
▁出汁	-11958
▁別れ	-11959
▁多田	-11960
▁往復	-11961
▁教学	-11962
▁根本	-11963
▁権現	-11964
▁発着	-11965
▁社長	-11966
▁複線	-11967
▁触れ	-11968
▁講談	-11969
▁負担	-11970
▁鎮座	-11971
▁頼長	-11972
hist	-11973
udon	-11974
urin	-11975
▁log	-11976
▁nig	-11977
▁システ	-11978
itled	-11979
izens	-11980
kichi	-11981
▁1598	-11982
▁adap	-11983
▁guns	-11984
▁kido	-11985
utsuna	-11986
▁saigu	-11987
▁tenri	-11988
atively	-11989
▁honden	-11990
▁kotoku	-11991
▁talent	-11992
▁feeling	-11993
▁pacific	-11994
▁seaweed	-11995
▁appropri	-11996
▁presumed	-11997
▁kiritsubo	-11998
▁recommend	-11999
▁attendants	-12000
▁missionary	-12001
▁separation	-12002
▁彰	-12003
▁摩	-12004
▁紐	-12005
hab	-12006
▁aj	-12007
▁ター	-12008
▁下旬	-12009
▁住居	-12010
▁俳諧	-12011
▁倭国	-12012
▁坂東	-12013
▁大島	-12014
▁大炊	-12015
▁桐壺	-12016
▁注釈	-12017
▁類似	-12018
gata	-12019
quis	-12020
▁ine	-12021
▁rid	-12022
▁こちら	-12023
▁センチ	-12024
akasa	-12025
cloth	-12026
▁1859	-12027
▁clay	-12028
▁eggs	-12029
▁kume	-12030
▁noto	-12031
▁pack	-12032
▁remn	-12033
▁seat	-12034
▁グループ	-12035
▁システム	-12036
heishi	-12037
▁ecchu	-12038
▁grown	-12039
▁kyudo	-12040
▁taiko	-12041
storied	-12042
▁ningyo	-12043
▁orient	-12044
▁suspic	-12045
▁yagura	-12046
▁cavalry	-12047
▁approach	-12048
▁costumes	-12049
▁describe	-12050
▁kashihara	-12051
▁technical	-12052
▁conspiracy	-12053
▁cultivation	-12054
▁accompanying	-12055
▁negotiations	-12056
▁奨	-12057
一郎	-12058
▁一帯	-12059
▁余り	-12060
▁双方	-12061
▁反発	-12062
▁収入	-12063
▁団地	-12064
▁国師	-12065
▁宝生	-12066
▁布教	-12067
▁引用	-12068
▁御霊	-12069
▁文殊	-12070
▁書店	-12071
▁有栖	-12072
▁歌仙	-12073
▁沿い	-12074
▁相対	-12075
▁素材	-12076
▁経路	-12077
▁藩士	-12078
▁議論	-12079
▁豊岡	-12080
▁選挙	-12081
▁金沢	-12082
fuji	-12083
imon	-12084
wers	-12085
▁glo	-12086
▁みょう	-12087
▁丸太町	-12088
asure	-12089
▁imai	-12090
▁paul	-12091
▁tani	-12092
▁ukai	-12093
gested	-12094
▁drive	-12095
▁faced	-12096
▁wives	-12097
▁yomei	-12098
▁kanpei	-12099
▁okunin	-12100
▁underw	-12101
ikazuchi	-12102
▁birthday	-12103
▁fukakusa	-12104
▁heavenly	-12105
▁oyamazaki	-12106
▁residences	-12107
▁棚	-12108
-19	-12109
▁いか	-12110
▁きん	-12111
▁与謝	-12112
▁久秀	-12113
▁互い	-12114
▁全長	-12115
▁公演	-12116
▁告げ	-12117
▁東南	-12118
▁栃木	-12119
▁永享	-12120
▁決ま	-12121
▁肖像	-12122
▁諸藩	-12123
▁院号	-12124
▁風土	-12125
aoji	-12126
jiki	-12127
▁kid	-12128
gment	-12129
igawa	-12130
sanjo	-12131
▁1568	-12132
▁5000	-12133
▁hour	-12134
▁kobo	-12135
▁ring	-12136
▁tayu	-12137
▁たびたび	-12138
idents	-12139
▁beach	-12140
▁birds	-12141
▁dated	-12142
▁doors	-12143
▁kogyo	-12144
▁mayor	-12145
▁nagai	-12146
▁okuma	-12147
inosuke	-12148
▁photog	-12149
▁preced	-12150
▁serves	-12151
▁tatami	-12152
▁yamano	-12153
▁emerged	-12154
▁growing	-12155
▁sources	-12156
▁programs	-12157
▁takakage	-12158
▁teahouse	-12159
▁celebrate	-12160
▁equipment	-12161
▁referring	-12162
▁yoshiharu	-12163
▁atmosphere	-12164
▁attributed	-12165
▁confection	-12166
▁regardless	-12167
pa	-12168
▁匂	-12169
▁啓	-12170
▁操	-12171
▁甚	-12172
▁褌	-12173
しき	-12174
ヒー	-12175
reg	-12176
▁一旦	-12177
▁中止	-12178
▁働き	-12179
▁先立	-12180
▁八十	-12181
▁南禅	-12182
▁山陽	-12183
▁広義	-12184
▁捨て	-12185
▁景勝	-12186
▁書状	-12187
▁杜氏	-12188
▁相国	-12189
▁芹沢	-12190
▁課程	-12191
▁通信	-12192
▁遂げ	-12193
ッシュ	-12194
gaki	-12195
lers	-12196
saku	-12197
▁une	-12198
aging	-12199
amono	-12200
▁chop	-12201
▁forb	-12202
▁isol	-12203
▁乗り入れ	-12204
▁1,000	-12205
▁hizen	-12206
▁manch	-12207
▁shodo	-12208
▁sanada	-12209
▁arrival	-12210
▁attempt	-12211
▁autonom	-12212
▁claimed	-12213
▁shimizu	-12214
▁equipped	-12215
▁invented	-12216
▁generated	-12217
▁performer	-12218
▁yoshitsugu	-12219
▁represented	-12220
▁胸	-12221
▁詮	-12222
▁釣	-12223
ias	-12224
ius	-12225
omy	-12226
▁eb	-12227
▁じん	-12228
▁上旬	-12229
▁保持	-12230
▁免許	-12231
▁八木	-12232
▁分裂	-12233
▁判断	-12234
▁士族	-12235
▁姿勢	-12236
▁定家	-12237
▁差し	-12238
▁急死	-12239
▁時宗	-12240
▁機械	-12241
▁正宗	-12242
▁稽古	-12243
▁空間	-12244
▁納豆	-12245
▁衆議	-12246
▁講堂	-12247
▁送り	-12248
▁酒屋	-12249
▁願い	-12250
▁250	-12251
▁iki	-12252
▁koi	-12253
▁ves	-12254
▁ウナギ	-12255
emune	-12256
ician	-12257
itoki	-12258
osaka	-12259
useki	-12260
▁amag	-12261
▁hagi	-12262
▁race	-12263
▁taku	-12264
▁コーヒー	-12265
▁プラット	-12266
ashino	-12267
idated	-12268
ifying	-12269
onishi	-12270
▁delic	-12271
▁fashi	-12272
▁seika	-12273
▁straw	-12274
onokami	-12275
▁novels	-12276
▁thread	-12277
▁classic	-12278
▁dazaifu	-12279
▁nakatsu	-12280
▁seasons	-12281
▁sliding	-12282
▁weather	-12283
▁citizens	-12284
▁ancestors	-12285
▁appearing	-12286
▁takatsuki	-12287
▁possibility	-12288
▁pronunciation	-12289
▁傷	-12290
▁壊	-12291
さぎ	-12292
▁かき	-12293
▁エピ	-12294
▁下賜	-12295
▁中川	-12296
▁交代	-12297
▁侯爵	-12298
▁化学	-12299
▁国会	-12300
▁国学	-12301
▁地歌	-12302
▁大手	-12303
▁学習	-12304
▁弥勒	-12305
▁弾正	-12306
▁後円	-12307
▁日常	-12308
▁春宮	-12309
▁沿革	-12310
▁神護	-12311
▁脚本	-12312
▁趣味	-12313
▁追贈	-12314
▁陵墓	-12315
▁高市	-12316
alle	-12317
apon	-12318
▁biw	-12319
▁pad	-12320
▁tek	-12321
▁ケース	-12322
▁有栖川	-12323
esada	-12324
umber	-12325
▁crow	-12326
▁furu	-12327
▁oita	-12328
▁pane	-12329
ishige	-12330
▁advoc	-12331
▁bloom	-12332
▁fully	-12333
▁judge	-12334
▁kendo	-12335
▁kenmu	-12336
▁omura	-12337
▁reapp	-12338
▁tourn	-12339
▁trigg	-12340
▁yokai	-12341
▁kashiw	-12342
▁vessel	-12343
▁classes	-12344
▁forward	-12345
▁kitchen	-12346
▁koyasan	-12347
▁mishima	-12348
▁shokoku	-12349
▁assembly	-12350
▁engraved	-12351
▁entitled	-12352
▁takayama	-12353
▁tangible	-12354
▁abdicated	-12355
▁ingredient	-12356
▁broadcasting	-12357
▁manufactured	-12358
▁埴	-12359
▁孤	-12360
▁致	-12361
はり	-12362
▁mr	-12363
▁ox	-12364
▁おそ	-12365
▁カー	-12366
▁元亀	-12367
▁利益	-12368
▁受章	-12369
▁天慶	-12370
▁天理	-12371
▁定期	-12372
▁左馬	-12373
▁東海	-12374
▁機構	-12375
▁正統	-12376
▁水軍	-12377
▁没収	-12378
▁結城	-12379
▁義時	-12380
▁職務	-12381
▁芸妓	-12382
▁頼政	-12383
ソード	-12384
ホーム	-12385
▁sme	-12386
▁むしろ	-12387
eenth	-12388
igami	-12389
▁blow	-12390
▁drew	-12391
▁gets	-12392
▁suki	-12393
▁tram	-12394
▁yaku	-12395
▁flood	-12396
▁gengo	-12397
▁ramen	-12398
▁エピソード	-12399
fushimi	-12400
▁expert	-12401
▁liquor	-12402
▁sutoku	-12403
▁farming	-12404
▁itagaki	-12405
▁keeping	-12406
▁trusted	-12407
▁wrapped	-12408
▁プラットホーム	-12409
▁dispatch	-12410
▁electrif	-12411
▁nakagawa	-12412
▁withdraw	-12413
▁mandokoro	-12414
▁warehouse	-12415
▁okuninushi	-12416
▁battlefield	-12417
▁伺	-12418
▁媛	-12419
▁嶋	-12420
▁弦	-12421
▁懸	-12422
ちに	-12423
ダー	-12424
edo	-12425
▁ug	-12426
▁仁安	-12427
▁俳句	-12428
▁元就	-12429
▁助六	-12430
▁在位	-12431
▁天橋	-12432
▁巫女	-12433
▁強化	-12434
▁成人	-12435
▁支店	-12436
▁教員	-12437
▁日吉	-12438
▁業務	-12439
▁真田	-12440
▁社格	-12441
▁編集	-12442
▁自宅	-12443
▁訪問	-12444
▁限定	-12445
▁院殿	-12446
▁鵜飼	-12447
geki	-12448
▁ane	-12449
▁中御門	-12450
aired	-12451
ounts	-12452
utaro	-12453
▁1200	-12454
▁doll	-12455
▁toho	-12456
▁faces	-12457
▁fukei	-12458
▁grain	-12459
▁pupil	-12460
▁wrong	-12461
▁charco	-12462
▁infant	-12463
▁issues	-12464
▁nagaok	-12465
▁stream	-12466
▁average	-12467
▁calling	-12468
▁extinct	-12469
▁hiyoshi	-12470
▁shimbun	-12471
▁hometown	-12472
▁enthroned	-12473
▁overthrow	-12474
▁suggested	-12475
▁necessarily	-12476
▁communication	-12477
▁剥	-12478
▁枝	-12479
▁猛	-12480
▁貼	-12481
ロー	-12482
ube	-12483
▁va	-12484
▁オオ	-12485
▁儒教	-12486
▁出町	-12487
▁寛平	-12488
▁弓道	-12489
▁徳島	-12490
▁擁立	-12491
▁有形	-12492
▁武道	-12493
▁浅草	-12494
▁浪人	-12495
▁澤村	-12496
▁空手	-12497
▁篆刻	-12498
▁能登	-12499
▁遠州	-12500
▁遣わ	-12501
zura	-12502
▁dig	-12503
▁kub	-12504
▁saf	-12505
▁エリア	-12506
▁マキノ	-12507
ikane	-12508
isawa	-12509
shiro	-12510
story	-12511
▁arch	-12512
▁goku	-12513
sticks	-12514
▁hyuga	-12515
▁iwate	-12516
▁media	-12517
▁russo	-12518
▁medium	-12519
▁minato	-12520
▁toshin	-12521
▁ukiyoe	-12522
inations	-12523
▁nohgaku	-12524
▁objects	-12525
▁revenge	-12526
▁kanazawa	-12527
▁seasonal	-12528
▁confusion	-12529
▁matsuyama	-12530
▁spiritual	-12531
▁marutamachi	-12532
▁recognition	-12533
▁relationships	-12534
ulg	-12535
▁うま	-12536
▁チェ	-12537
▁主催	-12538
▁兼務	-12539
▁出会	-12540
▁司法	-12541
▁因幡	-12542
▁夫婦	-12543
▁姫路	-12544
▁定義	-12545
▁弁慶	-12546
▁明応	-12547
▁武術	-12548
▁毎日	-12549
▁比叡	-12550
▁海上	-12551
▁親交	-12552
▁謙信	-12553
acts	-12554
come	-12555
▁大山崎	-12556
fried	-12557
▁1614	-12558
▁amen	-12559
▁kawa	-12560
▁onjo	-12561
▁soil	-12562
▁maiko	-12563
▁monju	-12564
▁persu	-12565
▁timet	-12566
▁astron	-12567
▁ienari	-12568
▁kaisan	-12569
▁actions	-12570
▁miscell	-12571
▁monzeki	-12572
▁parking	-12573
▁staying	-12574
▁admitted	-12575
▁insisted	-12576
▁pressure	-12577
▁breweries	-12578
▁continues	-12579
▁kagekatsu	-12580
▁tokushima	-12581
▁intersection	-12582
▁responsibility	-12583
▁縮	-12584
▁膳	-12585
▁襖	-12586
▁貸	-12587
▁鍛	-12588
さん	-12589
っぱ	-12590
下げ	-12591
▁81	-12592
▁82	-12593
▁こん	-12594
▁ヒメ	-12595
▁ビル	-12596
▁リー	-12597
▁体系	-12598
▁出世	-12599
▁医師	-12600
▁団子	-12601
▁城郭	-12602
▁大祭	-12603
▁始祖	-12604
▁小川	-12605
▁弘法	-12606
▁戒名	-12607
▁本部	-12608
▁樺太	-12609
▁水系	-12610
▁治安	-12611
▁甲賀	-12612
▁義務	-12613
▁飛び	-12614
▁黄砂	-12615
maki	-12616
▁bin	-12617
▁rib	-12618
▁味付け	-12619
aling	-12620
block	-12621
▁lots	-12622
people	-12623
▁cance	-12624
▁enshu	-12625
▁jokyu	-12626
▁expans	-12627
▁immigr	-12628
▁safety	-12629
▁prayers	-12630
▁statist	-12631
▁toyooka	-12632
▁election	-12633
▁anecdotes	-12634
▁departure	-12635
▁cultivated	-12636
▁earthenware	-12637
▁ゅ	-12638
▁佛	-12639
▁叩	-12640
▁煙	-12641
▁窓	-12642
▁窮	-12643
った	-12644
スコ	-12645
ーパ	-12646
bue	-12647
exp	-12648
vol	-12649
▁つれ	-12650
▁みさ	-12651
▁スペ	-12652
▁マン	-12653
▁佐久	-12654
▁入隊	-12655
▁千手	-12656
▁命名	-12657
▁大化	-12658
▁大変	-12659
▁如意	-12660
▁崇徳	-12661
▁廃藩	-12662
▁披露	-12663
▁抱え	-12664
▁敗戦	-12665
▁理事	-12666
▁画像	-12667
▁箱館	-12668
▁統制	-12669
▁限り	-12670
▁障壁	-12671
リーム	-12672
ibly	-12673
▁map	-12674
▁結びつ	-12675
usubi	-12676
▁1570	-12677
▁fair	-12678
▁loin	-12679
▁maid	-12680
▁momo	-12681
▁quar	-12682
▁shok	-12683
▁stab	-12684
▁unus	-12685
▁仮名遣い	-12686
meikan	-12687
▁chika	-12688
▁inten	-12689
▁kushi	-12690
▁組み合わせ	-12691
amikado	-12692
▁himeji	-12693
▁shochu	-12694
▁weapon	-12695
▁artists	-12696
▁holiday	-12697
▁injured	-12698
▁looking	-12699
▁soldier	-12700
▁capacity	-12701
▁premises	-12702
▁yasutoki	-12703
▁delivered	-12704
▁takashima	-12705
▁originator	-12706
▁situations	-12707
▁勾	-12708
▁楊	-12709
▁班	-12710
bur	-12711
▁くら	-12712
▁一致	-12713
▁並び	-12714
▁伝授	-12715
▁保管	-12716
▁健康	-12717
▁勲章	-12718
▁向日	-12719
▁大永	-12720
▁学科	-12721
▁実家	-12722
▁庇護	-12723
▁承安	-12724
▁神職	-12725
▁立命	-12726
▁胡弓	-12727
▁訴訟	-12728
▁評定	-12729
▁駅前	-12730
omyo	-12731
▁smo	-12732
akoji	-12733
faced	-12734
▁1848	-12735
▁koan	-12736
▁soma	-12737
▁ueda	-12738
▁yagi	-12739
▁yone	-12740
▁ラーメン	-12741
ctions	-12742
ertain	-12743
▁besto	-12744
▁bingo	-12745
▁fragr	-12746
▁fudai	-12747
▁liked	-12748
▁ceased	-12749
▁housed	-12750
▁immort	-12751
▁kitaoji	-12752
▁refined	-12753
▁charcoal	-12754
▁kanezane	-12755
▁mimasaka	-12756
▁nishioji	-12757
▁noriyori	-12758
▁treasury	-12759
omiyatsuko	-12760
▁execution	-12761
▁executive	-12762
▁prominent	-12763
▁timetable	-12764
▁shakuhachi	-12765
▁炎	-12766
▁麦	-12767
ごと	-12768
▁にく	-12769
▁ジョ	-12770
▁五百	-12771
▁仏師	-12772
▁会長	-12773
▁名勝	-12774
▁土器	-12775
▁大隈	-12776
▁実行	-12777
▁昇殿	-12778
▁機会	-12779
▁海岸	-12780
▁統計	-12781
▁絶え	-12782
▁職業	-12783
▁通行	-12784
▁郎党	-12785
▁酒井	-12786
▁陣屋	-12787
▁集中	-12788
inal	-12789
kazu	-12790
▁dum	-12791
▁enc	-12792
▁sob	-12793
▁團十郎	-12794
▁長岡京	-12795
imura	-12796
ishes	-12797
shoku	-12798
south	-12799
▁1160	-12800
▁1587	-12801
▁boys	-12802
▁corm	-12803
▁vary	-12804
▁least	-12805
▁marry	-12806
▁myoho	-12807
▁worth	-12808
angular	-12809
▁chichi	-12810
▁consol	-12811
▁equino	-12812
▁expand	-12813
▁losing	-12814
▁riding	-12815
▁seimei	-12816
▁takeno	-12817
▁demachi	-12818
▁fashion	-12819
▁leather	-12820
▁network	-12821
▁origins	-12822
▁russian	-12823
▁shimous	-12824
▁banished	-12825
▁hyakunin	-12826
▁mathemat	-12827
▁physical	-12828
▁revealed	-12829
▁servants	-12830
▁dormitory	-12831
▁katsumoto	-12832
▁affiliated	-12833
▁commanders	-12834
▁dictionary	-12835
▁successfully	-12836
▁壱	-12837
▁態	-12838
▁梁	-12839
▁腕	-12840
▁逮	-12841
▁鼓	-12842
なか	-12843
み出	-12844
ウン	-12845
ロン	-12846
寄せ	-12847
set	-12848
▁iv	-12849
▁上田	-12850
▁下級	-12851
▁吉祥	-12852
▁期待	-12853
▁武力	-12854
▁肥前	-12855
▁自殺	-12856
▁西部	-12857
▁詰め	-12858
▁運賃	-12859
▁陽明	-12860
▁uma	-12861
▁やはり	-12862
hatsu	-12863
heian	-12864
▁hida	-12865
▁muro	-12866
▁shor	-12867
▁soku	-12868
▁tenm	-12869
▁きっかけ	-12870
▁brand	-12871
▁brave	-12872
▁fleet	-12873
▁ogawa	-12874
▁ortho	-12875
▁cormor	-12876
▁daijin	-12877
▁kizoku	-12878
▁lasted	-12879
▁myojin	-12880
▁yoshio	-12881
▁yugiri	-12882
▁komachi	-12883
▁shoroku	-12884
▁tokudai	-12885
▁toshiie	-12886
▁deterior	-12887
▁speaking	-12888
▁tokimasa	-12889
▁comprised	-12890
▁essential	-12891
▁manufactur	-12892
▁nakamikado	-12893
▁separately	-12894
▁constitutional	-12895
▁匁	-12896
▁婿	-12897
▁戯	-12898
▁苗	-12899
▁陳	-12900
イド	-12901
hak	-12902
iff	-12903
▁おん	-12904
▁五山	-12905
▁使い	-12906
▁元老	-12907
▁前者	-12908
▁北方	-12909
▁十郎	-12910
▁協議	-12911
▁執事	-12912
▁天暦	-12913
▁小浜	-12914
▁年貢	-12915
▁得意	-12916
▁御池	-12917
▁本丸	-12918
▁柴田	-12919
▁決意	-12920
▁移行	-12921
▁範頼	-12922
▁装置	-12923
rete	-12924
toyo	-12925
yond	-12926
▁gek	-12927
▁haw	-12928
▁kem	-12929
▁ニュー	-12930
メートル	-12931
ankyo	-12932
onobu	-12933
▁1189	-12934
▁fans	-12935
▁nort	-12936
▁soke	-12937
▁swit	-12938
▁tomi	-12939
▁vert	-12940
▁dough	-12941
▁exerc	-12942
▁koken	-12943
▁ruler	-12944
▁suiko	-12945
▁キャンパス	-12946
▁diplom	-12947
▁extent	-12948
▁fusuma	-12949
▁struck	-12950
▁threat	-12951
hashidate	-12952
▁activity	-12953
▁expelled	-12954
▁shimousa	-12955
▁expansion	-12956
▁functions	-12957
▁loincloth	-12958
▁respected	-12959
▁yamanashi	-12960
▁yoshinari	-12961
▁masterless	-12962
▁yoshichika	-12963
▁ritsumeikan	-12964
▁符	-12965
ウス	-12966
大寺	-12967
▁一緒	-12968
▁佐伯	-12969
▁南方	-12970
▁夕霧	-12971
▁奉公	-12972
▁少女	-12973
▁帰還	-12974
▁役人	-12975
▁従事	-12976
▁忠実	-12977
▁手紙	-12978
▁捕縛	-12979
▁文武	-12980
▁書写	-12981
▁東軍	-12982
▁津田	-12983
▁王国	-12984
▁輩出	-12985
ンバー	-12986
anji	-12987
gusa	-12988
ogue	-12989
▁北大路	-12990
hishi	-12991
▁1467	-12992
▁1595	-12993
▁bear	-12994
▁ceme	-12995
▁crem	-12996
▁mush	-12997
▁phen	-12998
▁tenp	-12999
▁whis	-13000
eshige	-13001
omichi	-13002
▁barri	-13003
▁mural	-13004
▁penal	-13005
▁theme	-13006
▁totsu	-13007
▁tsuda	-13008
▁copies	-13009
▁daikon	-13010
▁forbid	-13011
▁prints	-13012
▁propag	-13013
▁shoryo	-13014
▁visits	-13015
▁yields	-13016
▁kikkawa	-13017
▁missing	-13018
▁respond	-13019
▁absorbed	-13020
▁enforced	-13021
▁everyday	-13022
▁seasoned	-13023
▁strategy	-13024
▁governing	-13025
▁meditation	-13026
▁originates	-13027
▁shakyamuni	-13028
▁convenience	-13029
▁ム	-13030
▁喫	-13031
▁噂	-13032
▁宅	-13033
▁底	-13034
▁按	-13035
▁揚	-13036
▁鎖	-13037
かく	-13038
勝宝	-13039
xts	-13040
▁あま	-13041
▁えん	-13042
▁ディ	-13043
▁一家	-13044
▁三田	-13045
▁三輪	-13046
▁中興	-13047
▁仏壇	-13048
▁令制	-13049
▁元慶	-13050
▁十分	-13051
▁博文	-13052
▁国史	-13053
▁地震	-13054
▁奮戦	-13055
▁宮廷	-13056
▁家禄	-13057
▁掌握	-13058
▁故実	-13059
▁料金	-13060
▁曹洞	-13061
▁相馬	-13062
▁若年	-13063
▁財団	-13064
ニュー	-13065
▁fee	-13066
▁かかわ	-13067
▁天橋立	-13068
ateru	-13069
eness	-13070
oring	-13071
ushed	-13072
▁1179	-13073
▁1336	-13074
▁1853	-13075
▁knew	-13076
▁kogo	-13077
▁want	-13078
▁天平勝宝	-13079
▁	-13080
e	-13081
a	-13082
o	-13083
i	-13084
t	-13085
n	-13086
s	-13087
r	-13088
h	-13089
d	-13090
u	-13091
l	-13092
m	-13093
c	-13094
f	-13095
p	-13096
g	-13097
k	-13098
y	-13099
w	-13100
b	-13101
の	-13102
,	-13103
.	-13104
。	-13105
(	-13106
)	-13107
、	-13108
に	-13109
る	-13110
v	-13111
1	-13112
た	-13113
は	-13114
と	-13115
j	-13116
し	-13117
-	-13118
を	-13119
い	-13120
て	-13121
が	-13122
で	-13123
れ	-13124
年	-13125
な	-13126
2	-13127
0	-13128
'	-13129
あ	-13130
9	-13131
っ	-13132
ら	-13133
も	-13134
8	-13135
か	-13136
z	-13137
こ	-13138
3	-13139
5	-13140
り	-13141
6	-13142
さ	-13143
7	-13144
日	-13145
大	-13146
4	-13147
す	-13148
う	-13149
"	-13150
ま	-13151
・	-13152
本	-13153
:	-13154
x	-13155
よ	-13156
月	-13157
く	-13158
国	-13159
」	-13160
「	-13161
代	-13162
そ	-13163
め	-13164
家	-13165
一	-13166
後	-13167
時	-13168
き	-13169
京	-13170
天	-13171
子	-13172
中	-13173
山	-13174
人	-13175
け	-13176
わ	-13177
え	-13178
つ	-13179
名	-13180
ど	-13181
行	-13182
ー	-13183
お	-13184
上	-13185
ん	-13186
や	-13187
皇	-13188
寺	-13189
神	-13190
長	-13191
都	-13192
地	-13193
市	-13194
明	-13195
学	-13196
文	-13197
田	-13198
道	-13199
三	-13200
だ	-13201
元	-13202
ン	-13203
出	-13204
下	-13205
平	-13206
氏	-13207
生	-13208
q	-13209
正	-13210
治	-13211
内	-13212
和	-13213
み	-13214
ち	-13215
東	-13216
じ	-13217
位	-13218
川	-13219
事	-13220
方	-13221
立	-13222
政	-13223
高	-13224
部	-13225
ス	-13226
通	-13227
用	-13228
社	-13229
原	-13230
物	-13231
』	-13232
『	-13233
町	-13234
同	-13235
所	-13236
法	-13237
多	-13238
院	-13239
主	-13240
前	-13241
者	-13242
ば	-13243
現	-13244
成	-13245
的	-13246
間	-13247
合	-13248
宮	-13249
入	-13250
定	-13251
せ	-13252
在	-13253
駅	-13254
府	-13255
分	-13256
以	-13257
軍	-13258
義	-13259
戦	-13260
場	-13261
見	-13262
西	-13263
野	-13264
城	-13265
安	-13266
近	-13267
作	-13268
記	-13269
書	-13270
世	-13271
化	-13272
小	-13273
言	-13274
ル	-13275
王	-13276
新	-13277
武	-13278
宗	-13279
門	-13280
会	-13281
期	-13282
当	-13283
県	-13284
藤	-13285
信	-13286
流	-13287
朝	-13288
北	-13289
関	-13290
二	-13291
開	-13292
御	-13293
条	-13294
線	-13295
ト	-13296
江	-13297
戸	-13298
重	-13299
任	-13300
教	-13301
古	-13302
へ	-13303
イ	-13304
実	-13305
女	-13306
石	-13307
源	-13308
発	-13309
第	-13310
経	-13311
藩	-13312
目	-13313
官	-13314
建	-13315
臣	-13316
来	-13317
称	-13318
自	-13319
伝	-13320
初	-13321
使	-13322
木	-13323
ず	-13324
良	-13325
リ	-13326
業	-13327
公	-13328
び	-13329
五	-13330
太	-13331
歌	-13332
呼	-13333
説	-13334
親	-13335
ラ	-13336
吉	-13337
手	-13338
屋	-13339
ア	-13340
村	-13341
従	-13342
対	-13343
設	-13344
造	-13345
島	-13346
権	-13347
将	-13348
次	-13349
区	-13350
徳	-13351
十	-13352
形	-13353
男	-13354
号	-13355
土	-13356
要	-13357
死	-13358
鉄	-13359
郎	-13360
光	-13361
利	-13362
水	-13363
不	-13364
南	-13365
制	-13366
理	-13367
ろ	-13368
知	-13369
保	-13370
四	-13371
置	-13372
車	-13373
師	-13374
式	-13375
海	-13376
父	-13377
守	-13378
力	-13379
語	-13380
津	-13381
松	-13382
衛	-13383
ほ	-13384
タ	-13385
外	-13386
有	-13387
/	-13388
倉	-13389
げ	-13390
シ	-13391
持	-13392
仏	-13393
室	-13394
永	-13395
最	-13396
旧	-13397
動	-13398
金	-13399
度	-13400
参	-13401
特	-13402
全	-13403
画	-13404
ク	-13405
集	-13406
頼	-13407
体	-13408
カ	-13409
兵	-13410
清	-13411
蔵	-13412
母	-13413
表	-13414
久	-13415
面	-13416
館	-13417
伊	-13418
能	-13419
士	-13420
暦	-13421
受	-13422
八	-13423
数	-13424
命	-13425
別	-13426
昭	-13427
相	-13428
秀	-13429
心	-13430
河	-13431
身	-13432
幕	-13433
加	-13434
;	-13435
指	-13436
楽	-13437
意	-13438
ッ	-13439
存	-13440
井	-13441
直	-13442
宝	-13443
白	-13444
む	-13445
改	-13446
取	-13447
阪	-13448
観	-13449
族	-13450
左	-13451
付	-13452
堂	-13453
々	-13454
派	-13455
品	-13456
園	-13457
史	-13458
紀	-13459
性	-13460
像	-13461
福	-13462
ょ	-13463
舞	-13464
料	-13465
結	-13466
ぶ	-13467
べ	-13468
歳	-13469
等	-13470
路	-13471
系	-13472
民	-13473
広	-13474
忠	-13475
味	-13476
バ	-13477
勢	-13478
奈	-13479
右	-13480
統	-13481
職	-13482
盛	-13483
際	-13484
継	-13485
校	-13486
台	-13487
様	-13488
務	-13489
無	-13490
真	-13491
口	-13492
進	-13493
岡	-13494
慶	-13495
風	-13496
領	-13497
役	-13498
六	-13499
マ	-13500
馬	-13501
ひ	-13502
美	-13503
応	-13504
仁	-13505
足	-13506
養	-13507
始	-13508
少	-13509
ド	-13510
メ	-13511
術	-13512
向	-13513
コ	-13514
交	-13515
気	-13516
祭	-13517
弟	-13518
頭	-13519
郡	-13520
常	-13521
基	-13522
食	-13523
側	-13524
運	-13525
去	-13526
賀	-13527
茶	-13528
ロ	-13529
続	-13530
殿	-13531
変	-13532
万	-13533
由	-13534
納	-13535
勝	-13536
他	-13537
豊	-13538
承	-13539
～	-13540
歴	-13541
連	-13542
娘	-13543
活	-13544
議	-13545
考	-13546
巻	-13547
佐	-13548
種	-13549
令	-13550
ジ	-13551
乗	-13552
色	-13553
今	-13554
レ	-13555
降	-13556
音	-13557
住	-13558
尊	-13559
鎌	-13560
花	-13561
キ	-13562
興	-13563
ム	-13564
財	-13565
居	-13566
字	-13567
千	-13568
州	-13569
延	-13570
転	-13571
着	-13572
総	-13573
酒	-13574
工	-13575
ぎ	-13576
末	-13577
ご	-13578
兼	-13579
支	-13580
如	-13581
図	-13582
与	-13583
テ	-13584
再	-13585
営	-13586
葉	-13587
橋	-13588
各	-13589
残	-13590
祖	-13591
護	-13592
司	-13593
フ	-13594
産	-13595
ノ	-13596
起	-13597
組	-13598
乱	-13599
約	-13600
之	-13601
解	-13602
止	-13603
状	-13604
両	-13605
鳥	-13606
オ	-13607
切	-13608
落	-13609
ぐ	-13610
九	-13611
阿	-13612
備	-13613
ね	-13614
没	-13615
格	-13616
波	-13617
芸	-13618
康	-13619
移	-13620
仕	-13621
円	-13622
演	-13623
例	-13624
機	-13625
回	-13626
助	-13627
異	-13628
電	-13629
番	-13630
比	-13631
寛	-13632
谷	-13633
引	-13634
座	-13635
修	-13636
坂	-13637
跡	-13638
春	-13639
華	-13640
ウ	-13641
織	-13642
プ	-13643
科	-13644
サ	-13645
夫	-13646
諸	-13647
点	-13648
細	-13649
配	-13650
頃	-13651
員	-13652
製	-13653
兄	-13654
先	-13655
チ	-13656
崎	-13657
詳	-13658
廃	-13659
泉	-13660
築	-13661
般	-13662
僧	-13663
尾	-13664
列	-13665
帰	-13666
急	-13667
丸	-13668
調	-13669
得	-13670
登	-13671
宇	-13672
半	-13673
論	-13674
ナ	-13675
七	-13676
類	-13677
若	-13678
強	-13679
照	-13680
ふ	-13681
共	-13682
根	-13683
陸	-13684
団	-13685
焼	-13686
反	-13687
享	-13688
編	-13689
米	-13690
問	-13691
願	-13692
ニ	-13693
隊	-13694
器	-13695
域	-13696
達	-13697
絵	-13698
思	-13699
話	-13700
貞	-13701
界	-13702
叙	-13703
景	-13704
火	-13705
弥	-13706
売	-13707
研	-13708
述	-13709
孫	-13710
ビ	-13711
退	-13712
録	-13713
構	-13714
督	-13715
念	-13716
創	-13717
辺	-13718
争	-13719
百	-13720
及	-13721
店	-13722
伏	-13723
果	-13724
羽	-13725
丹	-13726
好	-13727
ミ	-13728
復	-13729
翌	-13730
渡	-13731
愛	-13732
[	-13733
件	-13734
越	-13735
ゆ	-13736
]	-13737
攻	-13738
究	-13739
著	-13740
満	-13741
周	-13742
施	-13743
討	-13744
影	-13745
収	-13746
追	-13747
可	-13748
パ	-13749
香	-13750
遺	-13751
郷	-13752
隆	-13753
属	-13754
博	-13755
房	-13756
具	-13757
選	-13758
終	-13759
ツ	-13760
竹	-13761
係	-13762
老	-13763
為	-13764
決	-13765
寄	-13766
判	-13767
唐	-13768
エ	-13769
ぼ	-13770
弘	-13771
ゅ	-13772
認	-13773
墳	-13774
階	-13775
林	-13776
曲	-13777
資	-13778
姓	-13779
霊	-13780
首	-13781
禄	-13782
草	-13783
奉	-13784
帝	-13785
極	-13786
空	-13787
鶴	-13788
昇	-13789
グ	-13790
妻	-13791
衆	-13792
病	-13793
浄	-13794
独	-13795
確	-13796
題	-13797
功	-13798
薩	-13799
志	-13800
離	-13801
管	-13802
商	-13803
宣	-13804
殺	-13805
典	-13806
ャ	-13807
張	-13808
デ	-13809
船	-13810
銀	-13811
計	-13812
供	-13813
失	-13814
律	-13815
紙	-13816
局	-13817
示	-13818
布	-13819
富	-13820
墓	-13821
量	-13822
育	-13823
ホ	-13824
雲	-13825
玉	-13826
奥	-13827
貴	-13828
綱	-13829
服	-13830
就	-13831
然	-13832
喜	-13833
挙	-13834
セ	-13835
黒	-13836
づ	-13837
筆	-13838
岩	-13839
済	-13840
普	-13841
ヶ	-13842
展	-13843
刀	-13844
規	-13845
陽	-13846
麻	-13847
増	-13848
禅	-13849
客	-13850
込	-13851
ィ	-13852
伴	-13853
技	-13854
斎	-13855
儀	-13856
印	-13857
羅	-13858
寿	-13859
塔	-13860
彼	-13861
池	-13862
型	-13863
ざ	-13864
撃	-13865
ダ	-13866
送	-13867
容	-13868
仲	-13869
ぞ	-13870
省	-13871
映	-13872
装	-13873
略	-13874
ハ	-13875
専	-13876
智	-13877
ネ	-13878
辞	-13879
赤	-13880
聞	-13881
深	-13882
ュ	-13883
単	-13884
梅	-13885
段	-13886
姫	-13887
ブ	-13888
介	-13889
態	-13890
亡	-13891
歩	-13892
友	-13893
必	-13894
呂	-13895
ケ	-13896
材	-13897
章	-13898
敗	-13899
早	-13900
角	-13901
秋	-13902
含	-13903
模	-13904
沢	-13905
節	-13906
評	-13907
聖	-13908
放	-13909
亀	-13910
庭	-13911
茂	-13912
濃	-13913
留	-13914
程	-13915
飛	-13916
ギ	-13917
庫	-13918
遠	-13919
荘	-13920
陣	-13921
過	-13922
?	-13923
モ	-13924
至	-13925
旅	-13926
響	-13927
青	-13928
廷	-13929
賞	-13930
許	-13931
打	-13932
提	-13933
摂	-13934
隠	-13935
範	-13936
違	-13937
割	-13938
象	-13939
推	-13940
蓮	-13941
農	-13942
ワ	-13943
礼	-13944
完	-13945
夜	-13946
浜	-13947
后	-13948
弁	-13949
覚	-13950
鮮	-13951
ズ	-13952
質	-13953
宿	-13954
密	-13955
祀	-13956
敷	-13957
読	-13958
授	-13959
情	-13960
遣	-13961
優	-13962
断	-13963
甲	-13964
輪	-13965
境	-13966
価	-13967
徴	-13968
玄	-13969
衣	-13970
接	-13971
幡	-13972
横	-13973
習	-13974
爵	-13975
我	-13976
ガ	-13977
洋	-13978
漢	-13979
害	-13980
帯	-13981
難	-13982
幸	-13983
非	-13984
徒	-13985
ョ	-13986
街	-13987
即	-13988
侍	-13989
君	-13990
ゃ	-13991
写	-13992
菩	-13993
弓	-13994
素	-13995
報	-13996
速	-13997
温	-13998
限	-13999
薬	-14000
監	-14001
→	-14002
ェ	-14003
ぜ	-14004
熊	-14005
幼	-14006
滅	-14007
縁	-14008
瀬	-14009
維	-14010
補	-14011
龍	-14012
遊	-14013
岐	-14014
釈	-14015
善	-14016
消	-14017
因	-14018
級	-14019
講	-14020
豆	-14021
彦	-14022
除	-14023
息	-14024
葬	-14025
陵	-14026
更	-14027
鹿	-14028
宅	-14029
卿	-14030
奏	-14031
禁	-14032
処	-14033
襲	-14034
導	-14035
里	-14036
視	-14037
杉	-14038
舎	-14039
孝	-14040
想	-14041
返	-14042
予	-14043
絶	-14044
雄	-14045
描	-14046
英	-14047
憲	-14048
概	-14049
嘉	-14050
差	-14051
浦	-14052
庁	-14053
破	-14054
婚	-14055
防	-14056
札	-14057
栄	-14058
堀	-14059
囲	-14060
協	-14061
季	-14062
医	-14063
停	-14064
鎮	-14065
並	-14066
俗	-14067
求	-14068
裏	-14069
注	-14070
毛	-14071
閣	-14072
稲	-14073
策	-14074
党	-14075
勅	-14076
ヒ	-14077
陰	-14078
拠	-14079
ヤ	-14080
積	-14081
端	-14082
感	-14083
板	-14084
執	-14085
陀	-14086
片	-14087
児	-14088
雑	-14089
ベ	-14090
版	-14091
悪	-14092
拝	-14093
請	-14094
征	-14095
=	-14096
ソ	-14097
伎	-14098
顕	-14099
率	-14100
検	-14101
摩	-14102
矢	-14103
飯	-14104
嫡	-14105
塩	-14106
易	-14107
逃	-14108
醍	-14109
醐	-14110
湯	-14111
姿	-14112
整	-14113
迎	-14114
庵	-14115
申	-14116
ぬ	-14117
黄	-14118
精	-14119
私	-14120
妙	-14121
剣	-14122
載	-14123
譲	-14124
俊	-14125
央	-14126
望	-14127
休	-14128
余	-14129
厳	-14130
雅	-14131
洛	-14132
柳	-14133
担	-14134
夷	-14135
群	-14136
掛	-14137
刻	-14138
油	-14139
背	-14140
>	-14141
臨	-14142
塚	-14143
貨	-14144
何	-14145
ポ	-14146
折	-14147
順	-14148
森	-14149
ゴ	-14150
則	-14151
崩	-14152
鬼	-14153
浅	-14154
仙	-14155
坊	-14156
仰	-14157
贈	-14158
尼	-14159
未	-14160
句	-14161
併	-14162
案	-14163
畿	-14164
躍	-14165
港	-14166
献	-14167
冷	-14168
告	-14169
邸	-14170
紋	-14171
飾	-14172
便	-14173
鏡	-14174
仮	-14175
負	-14176
峨	-14177
散	-14178
輔	-14179
途	-14180
紫	-14181
勧	-14182
滋	-14183
準	-14184
ザ	-14185
笠	-14186
捕	-14187
ピ	-14188
査	-14189
晴	-14190
催	-14191
銅	-14192
席	-14193
訳	-14194
訪	-14195
革	-14196
嵯	-14197
混	-14198
%	-14199
桃	-14200
複	-14201
桜	-14202
毎	-14203
豪	-14204
磨	-14205
銭	-14206
戻	-14207
走	-14208
待	-14209
察	-14210
扱	-14211
証	-14212
激	-14213
壁	-14214
叡	-14215
圧	-14216
丁	-14217
肉	-14218
植	-14219
短	-14220
菊	-14221
罪	-14222
裁	-14223
賢	-14224
誕	-14225
妹	-14226
勤	-14227
脱	-14228
伯	-14229
ボ	-14230
倭	-14231
恵	-14232
籍	-14233
魚	-14234
項	-14235
露	-14236
泰	-14237
劇	-14238
遷	-14239
桂	-14240
静	-14241
験	-14242
狭	-14243
給	-14244
談	-14245
採	-14246
賜	-14247
幅	-14248
岸	-14249
譜	-14250
撰	-14251
故	-14252
個	-14253
警	-14254
還	-14255
固	-14256
謀	-14257
抜	-14258
倒	-14259
刑	-14260
烏	-14261
免	-14262
砂	-14263
識	-14264
射	-14265
湖	-14266
雪	-14267
墨	-14268
詞	-14269
束	-14270
占	-14271
庶	-14272
戒	-14273
貫	-14274
突	-14275
須	-14276
ヨ	-14277
蘇	-14278
詩	-14279
姉	-14280
柄	-14281
祇	-14282
快	-14283
層	-14284
低	-14285
押	-14286
牛	-14287
抗	-14288
封	-14289
揚	-14290
俳	-14291
夏	-14292
税	-14293
卒	-14294
雨	-14295
振	-14296
替	-14297
寮	-14298
尚	-14299
敵	-14300
試	-14301
穂	-14302
援	-14303
嗣	-14304
軽	-14305
尺	-14306
淀	-14307
坐	-14308
刊	-14309
似	-14310
依	-14311
候	-14312
勘	-14313
勲	-14314
標	-14315
績	-14316
朱	-14317
干	-14318
販	-14319
逆	-14320
冬	-14321
隣	-14322
冠	-14323
荒	-14324
鼓	-14325
幹	-14326
覧	-14327
縄	-14328
崇	-14329
沿	-14330
熱	-14331
頂	-14332
況	-14333
祝	-14334
※	-14335
麦	-14336
旗	-14337
湾	-14338
厚	-14339
盟	-14340
■	-14341
庄	-14342
浪	-14343
算	-14344
飲	-14345
粉	-14346
ペ	-14347
腹	-14348
那	-14349
効	-14350
暗	-14351
柱	-14352
環	-14353
壇	-14354
伐	-14355
幣	-14356
声	-14357
被	-14358
昌	-14359
益	-14360
課	-14361
浮	-14362
招	-14363
了	-14364
換	-14365
髪	-14366
純	-14367
敬	-14368
枚	-14369
減	-14370
壬	-14371
剛	-14372
旨	-14373
競	-14374
包	-14375
澄	-14376
葛	-14377
染	-14378
狩	-14379
脚	-14380
血	-14381
吹	-14382
巡	-14383
閉	-14384
往	-14385
投	-14386
韓	-14387
額	-14388
棟	-14389
帖	-14390
宰	-14391
垣	-14392
唱	-14393
絹	-14394
鴨	-14395
–	-14396
嵐	-14397
弾	-14398
狂	-14399
練	-14400
壊	-14401
晩	-14402
荷	-14403
輝	-14404
恩	-14405
衰	-14406
奪	-14407
皮	-14408
祥	-14409
訴	-14410
傷	-14411
輸	-14412
洞	-14413
脇	-14414
乾	-14415
迦	-14416
夕	-14417
繁	-14418
詠	-14419
逸	-14420
斉	-14421
副	-14422
揮	-14423
籠	-14424
働	-14425
威	-14426
怪	-14427
汁	-14428
童	-14429
胤	-14430
費	-14431
樹	-14432
扇	-14433
舟	-14434
障	-14435
附	-14436
橘	-14437
妃	-14438
峰	-14439
薨	-14440
倍	-14441
箱	-14442
否	-14443
簡	-14444
邦	-14445
詰	-14446
測	-14447
砲	-14448
傾	-14449
締	-14450
煮	-14451
騎	-14452
企	-14453
骨	-14454
航	-14455
醤	-14456
銘	-14457
麗	-14458
丈	-14459
播	-14460
災	-14461
盤	-14462
薄	-14463
袖	-14464
鑑	-14465
蒸	-14466
虎	-14467
辰	-14468
拡	-14469
委	-14470
桐	-14471
餅	-14472
疑	-14473
苦	-14474
才	-14475
穴	-14476
託	-14477
畠	-14478
訓	-14479
買	-14480
適	-14481
尽	-14482
芝	-14483
_	-14484
丘	-14485
寸	-14486
抄	-14487
澤	-14488
緒	-14489
亭	-14490
涯	-14491
錦	-14492
淡	-14493
踊	-14494
随	-14495
床	-14496
秘	-14497
旬	-14498
欠	-14499
甘	-14500
纂	-14501
斐	-14502
菅	-14503
忌	-14504
筋	-14505
糸	-14506
珠	-14507
筑	-14508
値	-14509
掌	-14510
牧	-14511
忍	-14512
探	-14513
鷹	-14514
沖	-14515
紅	-14516
闘	-14517
ァ	-14518
卵	-14519
握	-14520
紹	-14521
避	-14522
衡	-14523
掘	-14524
肥	-14525
宋	-14526
顔	-14527
但	-14528
株	-14529
侶	-14530
漬	-14531
斬	-14532
琵	-14533
琶	-14534
讃	-14535
吾	-14536
帳	-14537
珍	-14538
糖	-14539
蘭	-14540
鈴	-14541
刺	-14542
碑	-14543
祈	-14544
鐘	-14545
勇	-14546
較	-14547
雀	-14548
唯	-14549
笛	-14550
伸	-14551
携	-14552
諱	-14553
到	-14554
巨	-14555
慈	-14556
貢	-14557
酸	-14558
互	-14559
軒	-14560
慣	-14561
箇	-14562
菓	-14563
沼	-14564
竜	-14565
酵	-14566
魂	-14567
弱	-14568
枝	-14569
双	-14570
序	-14571
駿	-14572
ゲ	-14573
揆	-14574
筒	-14575
儒	-14576
犬	-14577
星	-14578
鳴	-14579
峠	-14580
*	-14581
騒	-14582
灯	-14583
球	-14584
幽	-14585
撮	-14586
芳	-14587
菜	-14588
陶	-14589
乳	-14590
盆	-14591
殊	-14592
致	-14593
鞍	-14594
駒	-14595
渉	-14596
答	-14597
抱	-14598
!	-14599
滝	-14600
融	-14601
寝	-14602
壺	-14603
健	-14604
婦	-14605
既	-14606
匠	-14607
危	-14608
又	-14609
夢	-14610
埋	-14611
奇	-14612
遇	-14613
侵	-14614
炊	-14615
蒲	-14616
辛	-14617
眼	-14618
彫	-14619
柴	-14620
添	-14621
葺	-14622
誉	-14623
齢	-14624
労	-14625
塾	-14626
岳	-14627
懐	-14628
嫁	-14629
刃	-14630
批	-14631
祐	-14632
尉	-14633
払	-14634
摘	-14635
曾	-14636
瓦	-14637
沙	-14638
袋	-14639
怒	-14640
敦	-14641
掲	-14642
伽	-14643
辻	-14644
誌	-14645
謙	-14646
鋳	-14647
篠	-14648
架	-14649
秦	-14650
閑	-14651
楼	-14652
午	-14653
欧	-14654
蕎	-14655
曜	-14656
恐	-14657
救	-14658
漁	-14659
堺	-14660
審	-14661
猿	-14662
麺	-14663
赴	-14664
彩	-14665
貿	-14666
ヘ	-14667
雷	-14668
ユ	-14669
宕	-14670
恋	-14671
超	-14672
遂	-14673
〕	-14674
峯	-14675
蝦	-14676
〔	-14677
恒	-14678
郵	-14679
削	-14680
署	-14681
叔	-14682
垂	-14683
礎	-14684
ヴ	-14685
浴	-14686
―	-14687
撤	-14688
瑞	-14689
拓	-14690
腐	-14691
踏	-14692
翁	-14693
惟	-14694
綾	-14695
寒	-14696
敏	-14697
郭	-14698
醸	-14699
是	-14700
洗	-14701
稚	-14702
曼	-14703
栗	-14704
洲	-14705
胡	-14706
衝	-14707
磐	-14708
滞	-14709
塗	-14710
賛	-14711
駐	-14712
却	-14713
獄	-14714
繰	-14715
底	-14716
荼	-14717
梁	-14718
毘	-14719
鵜	-14720
梨	-14721
迫	-14722
拒	-14723
昔	-14724
租	-14725
駆	-14726
箏	-14727
詣	-14728
漆	-14729
誤	-14730
針	-14731
冊	-14732
哲	-14733
槻	-14734
緑	-14735
謡	-14736
堅	-14737
悲	-14738
丞	-14739
偽	-14740
絡	-14741
鍋	-14742
捨	-14743
斯	-14744
○	-14745
乙	-14746
琴	-14747
阜	-14748
淳	-14749
妖	-14750
艦	-14751
桑	-14752
篤	-14753
券	-14754
召	-14755
媛	-14756
泊	-14757
趣	-14758
廻	-14759
國	-14760
旦	-14761
遅	-14762
罰	-14763
昼	-14764
丼	-14765
翻	-14766
ヲ	-14767
炭	-14768
禰	-14769
噌	-14770
困	-14771
氷	-14772
藍	-14773
釜	-14774
銃	-14775
鸞	-14776
嶋	-14777
盗	-14778
窓	-14779
ォ	-14780
悟	-14781
桓	-14782
圏	-14783
惣	-14784
柏	-14785
漫	-14786
畑	-14787
謝	-14788
軌	-14789
借	-14790
屏	-14791
毒	-14792
預	-14793
努	-14794
曽	-14795
衙	-14796
舗	-14797
鉢	-14798
閏	-14799
排	-14800
曹	-14801
膳	-14802
拾	-14803
燈	-14804
弦	-14805
楠	-14806
触	-14807
撲	-14808
妓	-14809
柔	-14810
網	-14811
責	-14812
鉱	-14813
其	-14814
苑	-14815
虫	-14816
裔	-14817
轄	-14818
侯	-14819
薫	-14820
詔	-14821
契	-14822
療	-14823
腰	-14824
&	-14825
僚	-14826
吸	-14827
誓	-14828
潟	-14829
璃	-14830
陥	-14831
尋	-14832
熟	-14833
瑠	-14834
緯	-14835
准	-14836
擁	-14837
鎖	-14838
婿	-14839
寂	-14840
暴	-14841
煎	-14842
詮	-14843
邪	-14844
也	-14845
乃	-14846
屯	-14847
鳳	-14848
慮	-14849
棒	-14850
充	-14851
於	-14852
宴	-14853
袴	-14854
飼	-14855
鯨	-14856
笑	-14857
縦	-14858
奴	-14859
寧	-14860
誠	-14861
暮	-14862
渋	-14863
犯	-14864
括	-14865
團	-14866
隈	-14867
耳	-14868
幾	-14869
縮	-14870
耕	-14871
震	-14872
廟	-14873
甥	-14874
茨	-14875
貝	-14876
ぱ	-14877
ヌ	-14878
顧	-14879
碗	-14880
輩	-14881
麹	-14882
彰	-14883
李	-14884
索	-14885
抵	-14886
損	-14887
歯	-14888
煙	-14889
魔	-14890
戊	-14891
栖	-14892
駄	-14893
麿	-14894
募	-14895
磯	-14896
槍	-14897
畳	-14898
隅	-14899
嘆	-14900
嫌	-14901
縫	-14902
励	-14903
履	-14904
灌	-14905
酢	-14906
帥	-14907
獲	-14908
賊	-14909
距	-14910
ゼ	-14911
虚	-14912
裂	-14913
恭	-14914
朽	-14915
綿	-14916
傍	-14917
<	-14918
”	-14919
條	-14920
均	-14921
慎	-14922
萬	-14923
微	-14924
棚	-14925
汲	-14926
箸	-14927
腕	-14928
ぷ	-14929
懸	-14930
遭	-14931
鶏	-14932
宸	-14933
己	-14934
赦	-14935
蹴	-14936
ぽ	-14937
淵	-14938
灰	-14939
狗	-14940
符	-14941
≒	-14942
吟	-14943
奨	-14944
蓋	-14945
勃	-14946
扶	-14947
燥	-14948
硬	-14949
梵	-14950
睦	-14951
紛	-14952
透	-14953
俵	-14954
諡	-14955
昧	-14956
寵	-14957
届	-14958
潮	-14959
櫓	-14960
穀	-14961
希	-14962
栽	-14963
炉	-14964
稽	-14965
亮	-14966
培	-14967
猶	-14968
獅	-14969
猪	-14970
呉	-14971
窮	-14972
霧	-14973
紐	-14974
険	-14975
云	-14976
攘	-14977
径	-14978
徹	-14979
遍	-14980
婆	-14981
昆	-14982
皆	-14983
埼	-14984
廊	-14985
慧	-14986
枕	-14987
溝	-14988
披	-14989
秩	-14990
悦	-14991
尹	-14992
殖	-14993
脈	-14994
浸	-14995
餡	-14996
劣	-14997
戚	-14998
抑	-14999
─	-15000
稿	-15001
杜	-15002
欲	-15003
呪	-15004
唄	-15005
宜	-15006
碁	-15007
+	-15008
喪	-15009
渓	-15010
坪	-15011
棄	-15012
覆	-15013
隔	-15014
檜	-15015
葵	-15016
裕	-15017
亜	-15018
粟	-15019
蕉	-15020
驚	-15021
拍	-15022
菱	-15023
卑	-15024
孔	-15025
挟	-15026
燃	-15027
〜	-15028
倫	-15029
愚	-15030
繋	-15031
肩	-15032
“	-15033
尻	-15034
徐	-15035
縛	-15036
菌	-15037
逝	-15038
刷	-15039
囃	-15040
堤	-15041
戯	-15042
胴	-15043
萩	-15044
塞	-15045
巫	-15046
琉	-15047
看	-15048
誇	-15049
賃	-15050
樺	-15051
邇	-15052
饅	-15053
鳩	-15054
麓	-15055
堵	-15056
猛	-15057
緩	-15058
髷	-15059
允	-15060
吏	-15061
誰	-15062
軸	-15063
奮	-15064
巧	-15065
践	-15066
炎	-15067
蛇	-15068
厨	-15069
翰	-15070
輿	-15071
庇	-15072
沈	-15073
蜂	-15074
閥	-15075
促	-15076
柿	-15077
泥	-15078
扉	-15079
潜	-15080
篆	-15081
苔	-15082
苗	-15083
栃	-15084
誅	-15085
斗	-15086
傘	-15087
操	-15088
瓶	-15089
該	-15090
頻	-15091
佛	-15092
疎	-15093
竣	-15094
脂	-15095
貧	-15096
溶	-15097
粧	-15098
芹	-15099
諏	-15100
【	-15101
】	-15102
奔	-15103
涼	-15104
豚	-15105
杵	-15106
甚	-15107
耐	-15108
誘	-15109
勒	-15110
啓	-15111
挿	-15112
枢	-15113
此	-15114
液	-15115
翼	-15116
鬘	-15117
旭	-15118
棲	-15119
購	-15120
×	-15121
橿	-15122
綬	-15123
謹	-15124
弐	-15125
弔	-15126
択	-15127
班	-15128
磁	-15129
庸	-15130
牌	-15131
盾	-15132
篭	-15133
襖	-15134
串	-15135
凡	-15136
忘	-15137
梶	-15138
肖	-15139
褒	-15140
壮	-15141
繊	-15142
胸	-15143
諧	-15144
迷	-15145
朗	-15146
祓	-15147
祚	-15148
聚	-15149
謁	-15150
蒙	-15151
俣	-15152
升	-15153
械	-15154
棺	-15155
疏	-15156
痛	-15157
芭	-15158
褌	-15159
擬	-15160
牟	-15161
稙	-15162
粒	-15163
掃	-15164
矩	-15165
釣	-15166
巣	-15167
悩	-15168
貸	-15169
鍛	-15170
鞠	-15171
黙	-15172
鼻	-15173
巌	-15174
滑	-15175
濠	-15176
桶	-15177
靖	-15178
匂	-15179
埴	-15180
孤	-15181
旋	-15182
猫	-15183
皿	-15184
粋	-15185
訟	-15186
貼	-15187
嘗	-15188
獣	-15189
窯	-15190
魏	-15191
弼	-15192
核	-15193
楊	-15194
陳	-15195
骸	-15196
剥	-15197
廉	-15198
斜	-15199
暁	-15200
芋	-15201
茅	-15202
雁	-15203
勾	-15204
叩	-15205
烈	-15206
伺	-15207
凝	-15208
惑	-15209
曳	-15210
乏	-15211
呈	-15212
恨	-15213
揃	-15214
杖	-15215
櫛	-15216
症	-15217
耆	-15218
週	-15219
雇	-15220
壱	-15221
晋	-15222
稀	-15223
倣	-15224
聴	-15225
鉾	-15226
檀	-15227
猟	-15228
蛮	-15229
咲	-15230
歓	-15231
隋	-15232
匁	-15233
穢	-15234
糧	-15235
逮	-15236
需	-15237
凍	-15238
厩	-15239
喫	-15240
帽	-15241
泣	-15242
熙	-15243
鷲	-15244
儲	-15245
枯	-15246
縣	-15247
藻	-15248
粥	-15249
諭	-15250
噂	-15251
屈	-15252
患	-15253
按	-15254
綴	-15255
缶	-15256
蒔	-15257
貌	-15258
郊	-15259
億	-15260
兆	-15261
榎	-15262
矛	-15263
鎧	-15264
ゥ	-15265
冶	-15266
槃	-15267
泡	-15268
剃	-15269
姻	-15270
樫	-15271
狙	-15272
芦	-15273
甫	-15274
茎	-15275
枠	-15276
脳	-15277
葦	-15278
蔭	-15279
訂	-15280
蹟	-15281
控	-15282
曇	-15283
芽	-15284
鋒	-15285
哀	-15286
宛	-15287
嶽	-15288
穏	-15289
箔	-15290
臭	-15291
薦	-15292
騨	-15293
柵	-15294
欽	-15295
狐	-15296
逢	-15297
寇	-15298
揺	-15299
偶	-15300
湿	-15301
頓	-15302
寅	-15303
彌	-15304
穫	-15305
仇	-15306
倶	-15307
慰	-15308
棋	-15309
涅	-15310
偈	-15311
塵	-15312
祷	-15313
蕃	-15314
酎	-15315
鴎	-15316
ぢ	-15317
圀	-15318
緊	-15319
°	-15320
偏	-15321
汚	-15322
肌	-15323
臼	-15324
闇	-15325
〒	-15326
傑	-15327
叛	-15328
墾	-15329
慕	-15330
涌	-15331
妾	-15332
檗	-15333
胆	-15334
裾	-15335
ヂ	-15336
勉	-15337
抹	-15338
洪	-15339
膨	-15340
é	-15341
函	-15342
噺	-15343
斑	-15344
殆	-15345
琳	-15346
蝶	-15347
遁	-15348
或	-15349
暖	-15350
涙	-15351
煕	-15352
耶	-15353
薙	-15354
刈	-15355
圓	-15356
夭	-15357
朋	-15358
潔	-15359
狛	-15360
粘	-15361
蜜	-15362
僅	-15363
卓	-15364
怨	-15365
殻	-15366
燗	-15367
胎	-15368
賤	-15369
饗	-15370
魁	-15371
拳	-15372
牙	-15373
畝	-15374
肝	-15375
凶	-15376
卜	-15377
眠	-15378
禎	-15379
蓄	-15380
巳	-15381
怖	-15382
捉	-15383
措	-15384
吐	-15385
悔	-15386
摺	-15387
撥	-15388
汰	-15389
爪	-15390
盲	-15391
蚕	-15392
賦	-15393
逐	-15394
霞	-15395
飴	-15396
惜	-15397
杯	-15398
爆	-15399
眉	-15400
諾	-15401
鰹	-15402
亨	-15403
償	-15404
呑	-15405
笹	-15406
粕	-15407
某	-15408
漏	-15409
牡	-15410
祟	-15411
脅	-15412
阻	-15413
峡	-15414
循	-15415
枡	-15416
窟	-15417
迹	-15418
邑	-15419
C	-15420
ゾ	-15421
兜	-15422
哉	-15423
巾	-15424
粛	-15425
闍	-15426
克	-15427
學	-15428
樋	-15429
湊	-15430
絞	-15431
蘆	-15432
鴻	-15433
冒	-15434
喧	-15435
塁	-15436
壽	-15437
撫	-15438
裳	-15439
註	-15440
鋼	-15441
閤	-15442
傳	-15443
卯	-15444
嶺	-15445
帆	-15446
朴	-15447
粗	-15448
隼	-15449
雛	-15450
剤	-15451
憂	-15452
憤	-15453
析	-15454
璋	-15455
飢	-15456
鰻	-15457
乞	-15458
囚	-15459
茹	-15460
診	-15461
錬	-15462
塀	-15463
泳	-15464
票	-15465
簿	-15466
羊	-15467
舌	-15468
鍬	-15469
且	-15470
喰	-15471
徽	-15472
慢	-15473
溜	-15474
酔	-15475
鋭	-15476
鏑	-15477
憑	-15478
疫	-15479
酷	-15480
幌	-15481
幻	-15482
挑	-15483
潤	-15484
紗	-15485
股	-15486
虜	-15487
賓	-15488
遼	-15489
厄	-15490
叢	-15491
廓	-15492
杏	-15493
牽	-15494
篇	-15495
累	-15496
ā	-15497
ゝ	-15498
ヅ	-15499
殉	-15500
焉	-15501
臓	-15502
襟	-15503
髭	-15504
ぺ	-15505
崖	-15506
掾	-15507
晶	-15508
漉	-15509
漱	-15510
炒	-15511
纏	-15512
膠	-15513
鷺	-15514
壷	-15515
拘	-15516
樽	-15517
毅	-15518
瀧	-15519
瓊	-15520
癒	-15521
藝	-15522
覇	-15523
軟	-15524
遥	-15525
鯉	-15526
吊	-15527
庚	-15528
把	-15529
楯	-15530
潰	-15531
牢	-15532
采	-15533
鈔	-15534
隻	-15535
麩	-15536
巴	-15537
捜	-15538
沸	-15539
舒	-15540
隷	-15541
‐	-15542
凰	-15543
嘩	-15544
煉	-15545
爾	-15546
璽	-15547
硯	-15548
祉	-15549
絃	-15550
而	-15551
蟄	-15552
酉	-15553
隙	-15554
懇	-15555
抽	-15556
窪	-15557
袍	-15558
錯	-15559
陪	-15560
雰	-15561
麟	-15562
債	-15563
匿	-15564
岬	-15565
應	-15566
据	-15567
漂	-15568
疲	-15569
芥	-15570
裸	-15571
賑	-15572
亥	-15573
截	-15574
搬	-15575
燕	-15576
竪	-15577
遡	-15578
鳶	-15579
\	-15580
匹	-15581
峻	-15582
拙	-15583
椿	-15584
皐	-15585
禍	-15586
膝	-15587
荻	-15588
餓	-15589
〈	-15590
妊	-15591
廬	-15592
洒	-15593
湛	-15594
痘	-15595
祠	-15596
釘	-15597
娯	-15598
廿	-15599
挽	-15600
瓜	-15601
碧	-15602
聡	-15603
藁	-15604
貯	-15605
鍵	-15606
妨	-15607
柚	-15608
桟	-15609
竈	-15610
箕	-15611
羹	-15612
菟	-15613
閻	-15614
〉	-15615
兎	-15616
實	-15617
懲	-15618
榊	-15619
浩	-15620
濁	-15621
焦	-15622
畔	-15623
糠	-15624
臂	-15625
躯	-15626
刹	-15627
喩	-15628
姪	-15629
暇	-15630
砦	-15631
簪	-15632
臥	-15633
裟	-15634
叉	-15635
喬	-15636
妬	-15637
熾	-15638
盧	-15639
紺	-15640
芙	-15641
馳	-15642
騰	-15643
妥	-15644
峙	-15645
惨	-15646
晒	-15647
椎	-15648
欄	-15649
焚	-15650
竺	-15651
袈	-15652
銕	-15653
鏃	-15654
霜	-15655
傅	-15656
叫	-15657
硫	-15658
聘	-15659
饉	-15660
馴	-15661
ヵ	-15662
丑	-15663
俘	-15664
婢	-15665
恥	-15666
憶	-15667
晦	-15668
簾	-15669
翫	-15670
諦	-15671
饌	-15672
ぴ	-15673
冥	-15674
嗜	-15675
捧	-15676
朔	-15677
椋	-15678
甕	-15679
眺	-15680
綸	-15681
鮎	-15682
杓	-15683
肴	-15684
蓉	-15685
蓬	-15686
堯	-15687
廣	-15688
暫	-15689
畜	-15690
罷	-15691
訶	-15692
誦	-15693
謂	-15694
謎	-15695
譚	-15696
韻	-15697
壌	-15698
岑	-15699
曰	-15700
椀	-15701
瞬	-15702
稜	-15703
糾	-15704
莫	-15705
伍	-15706
寳	-15707
弊	-15708
渤	-15709
砕	-15710
秤	-15711
筅	-15712
繍	-15713
蕪	-15714
袱	-15715
鐸	-15716
鴈	-15717
堰	-15718
娶	-15719
擢	-15720
湧	-15721
溢	-15722
滴	-15723
畏	-15724
薪	-15725
酛	-15726
馨	-15727
魅	-15728
帷	-15729
淑	-15730
翠	-15731
讒	-15732
咎	-15733
坦	-15734
槌	-15735
狼	-15736
舶	-15737
蜘	-15738
賽	-15739
跏	-15740
跨	-15741
遮	-15742
鉦	-15743
闕	-15744
鯛	-15745
卷	-15746
叟	-15747
帛	-15748
悼	-15749
斥	-15750
暑	-15751
曖	-15752
樂	-15753
當	-15754
眞	-15755
笙	-15756
篋	-15757
蓑	-15758
蛛	-15759
謳	-15760
釉	-15761
尖	-15762
戴	-15763
敢	-15764
柘	-15765
櫻	-15766
煩	-15767
牒	-15768
痕	-15769
碩	-15770
稼	-15771
肺	-15772
蚊	-15773
蜷	-15774
逓	-15775
鞆	-15776
叶	-15777
嫉	-15778
彬	-15779
拭	-15780
毀	-15781
窺	-15782
艶	-15783
衷	-15784
鞘	-15785
傀	-15786
儡	-15787
堪	-15788
悠	-15789
挫	-15790
畷	-15791
菖	-15792
藪	-15793
閲	-15794
頑	-15795
鼠	-15796
亘	-15797
匡	-15798
卸	-15799
宏	-15800
悉	-15801
憐	-15802
棹	-15803
款	-15804
汽	-15805
牲	-15806
犠	-15807
篥	-15808
綺	-15809
脩	-15810
臈	-15811
與	-15812
芯	-15813
萱	-15814
螺	-15815
雌	-15816
ゑ	-15817
佳	-15818
叱	-15819
噛	-15820
塑	-15821
斧	-15822
樟	-15823
篳	-15824
擾	-15825
槐	-15826
沐	-15827
溺	-15828
珂	-15829
癖	-15830
腸	-15831
號	-15832
蝉	-15833
鵄	-15834
~	-15835
什	-15836
劉	-15837
嘱	-15838
宙	-15839
斤	-15840
濾	-15841
焙	-15842
猩	-15843
玖	-15844
疾	-15845
總	-15846
董	-15847
辱	-15848
醜	-15849
⇒	-15850
冑	-15851
弧	-15852
揉	-15853
擦	-15854
梗	-15855
椅	-15856
椒	-15857
槽	-15858
瓢	-15859
秒	-15860
胃	-15861
舅	-15862
衿	-15863
諌	-15864
逍	-15865
遵	-15866
鈷	-15867
ゐ	-15868
昨	-15869
杭	-15870
桁	-15871
艘	-15872
茄	-15873
葱	-15874
迄	-15875
乎	-15876
偉	-15877
宵	-15878
嵌	-15879
櫃	-15880
舜	-15881
贋	-15882
阮	-15883
雉	-15884
鯖	-15885
偵	-15886
凱	-15887
慌	-15888
拶	-15889
挨	-15890
梓	-15891
歿	-15892
竿	-15893
蛍	-15894
褐	-15895
諫	-15896
賭	-15897
跋	-15898
辿	-15899
迭	-15900
鈿	-15901
靴	-15902
駕	-15903
凌	-15904
毫	-15905
毬	-15906
漸	-15907
玩	-15908
稗	-15909
笥	-15910
貰	-15911
遙	-15912
劫	-15913
揖	-15914
撒	-15915
晃	-15916
渟	-15917
灘	-15918
繕	-15919
苛	-15920
蛉	-15921
蜻	-15922
蟹	-15923
錫	-15924
零	-15925
⋯	-15926
゙	-15927
佃	-15928
僊	-15929
坑	-15930
奘	-15931
托	-15932
漠	-15933
翔	-15934
袢	-15935
頒	-15936
鵺	-15937
鶯	-15938
←	-15939
剰	-15940
厭	-15941
咋	-15942
幟	-15943
欣	-15944
珎	-15945
禊	-15946
稔	-15947
糊	-15948
醒	-15949
偲	-15950
咫	-15951
宍	-15952
尭	-15953
恕	-15954
惧	-15955
憩	-15956
汝	-15957
湘	-15958
濡	-15959
瘡	-15960
絣	-15961
膾	-15962
虐	-15963
覗	-15964
唆	-15965
堕	-15966
奢	-15967
徂	-15968
搾	-15969
燭	-15970
癌	-15971
祗	-15972
經	-15973
罹	-15974
臺	-15975
茲	-15976
葭	-15977
賠	-15978
邊	-15979
鉛	-15980
—	-15981
凉	-15982
姥	-15983
扁	-15984
槇	-15985
歎	-15986
緋	-15987
肪	-15988
臚	-15989
襄	-15990
襦	-15991
趙	-15992
鄭	-15993
鍔	-15994
鐵	-15995
韶	-15996
